[PAD]
[SEP]
[CLS]
[UNK]
[MASK]
0
1
2
3
4
5
6
7
8
9
a
b
c
d
e
f
##5
##e
##8
##7
##d
##4
##b
##3
##6
##0
##2
##9
##f
##c
##1
##a
##00
000
0000
00
##40
01
##01
02
##03
##0a
03
##04
##08
##000
040
##bb
08
##500
06
##c0
0a
##81
bb
4500
01bb
003
4000
0002
##80
05
0204
##ff
14
##b4
0303
##50
080a
##0a8
##a0
c0a8
##90
##814
##006
a814
0101
0103
0402
##20
0001
0040
0405
b40
05b4
12
##70
##26
##6f
##07
##e8
##002
04
34
##21
##010
3c
##06
##72
##bf
0208
##71
##09
##28
##012
4006
##e5
26
##af
090
##98
6f
e8
0034
##dc
##e7
0308
bf
0108
##e1
##c6
71
##d9
003c
##001
00a0
ff
##02
##54
a002
##93
##73
##d4
##58
##d2
##d7
##fa
##e3
##e6
##d3
0080
##56
##d6
##9c
##23
##ac
##78
##b8
##46
##b3
##53
##d8
##d1
b404
##5c
##96
##76
b401
0050
##b1
##7a
##74
##da
##5a
##f6
##b6
##91
##e4
##ec
##bc
##ea
##e2
28
##df
##9a
##51
0909
##7c
##ba
##5f
##0c
##ef
##38
##52
##7f
0307
##94
##36
5010
##92
##1f
##9f
##eb
##34
8010
0104
##0f
##b2
##57
##900
##16
##88
fff
##4a
##db
##cc
##d5
##a6
f6
14bf
##e9
1000
##33
##86
##2c
##d0
ac
c6
8006
ffff
##e0
##24
##b0
dc
##31
146f
721
##a00
##3f
1001
38
98
##3c
##b9
##77
##2f
##3a
##59
e1
##2a
7210
##e00
##de
##d00
1f
##11
a012
9c
##55
##44
##8f
##200
##79
46
02ff
0b
##700
16
##aa
36
58
##dd
11
##4f
86
##41
31
##300
b8
68
b6
##48
##5b
##ee
a6
##32
66
e6
##400
0600
##4c
##7b
96
76
8f
##a8
##a1
cc
##5e
18
cf
##99
d6
0f
1c
61
d8
c1
56
0c
6c
b1
00c0
7c
20
5c
2c
3b
d1
78
bc
##22
91
0800
##39
af
df
0309
41
a8
3f
f1
fc
##ed
5f
93
88
7012
8c
3c00
7f
4f
ec
c8
##5d
10
0028
##b00
81
0272
50
2f
e7
f8
4c
21
48
51
00e5
090b
##b7
9f
26e8
e804
0426
ef
##97
3a
a1
f0
0a00
##bd
0102
63
e826
7120
##af0
0100
73
04e8
2603
##49
ca
##be
1271
##43
##75
0201
##42
0020
1470
e5
303
9a
0d
2006
da
5a
aa
##401
##e01
33
ea
4a
1a
##b5
65
8a
##29
6a
fa
##7e
ba
2a
39
faf0
64
74
8002
##201
2000
c3
d3
8012
7a
b3
3400
23
bbb
##7d
eb
d9
##68
69
a5
24
53
54
##2e
e3
02fa
c2
a3
83
bbc
3030
c4
b9
d4
43
0801
b4
22
##10
f4
e2
62
d7
0220
89
72
f3
b2
e4
##8b
32
0a6
##3e
d2
82
13
94
##2b
45
17
79
44
57
##2d
##9b
1471
##25
67
c7
19
##0d
##45
##35
8b
##4b
a4
a2
bf01
59
e9
84
##30
001
15
##9e
29
##4e
##ad
ad
52
92
003b
42
a9
49
99
47
25
##64
##4d
##9d
0005
db
9b
97
3b06
c5
##95
35
77
##3d
2e
55
6f01
##889
##27
##87
##05
##37
c9
b7
cd
fb
##8e
##3b
##47
09
f5
b5
27
37
a7
6b
05dc
4b
85
##a7
ab
##17
f2
##ae
75
##89
##cf
##c7
##cd
2d
ce
90
95
7b
d5
a889
cb
2b
5b
0138
07
##ce
f9
6d
9d
##8d
##a3
0900
##8c
##83
##84
f7
87
acd9
0e
0400
1b
bbf
1e
##009
##a9
70
6e
##a4
5e
0030
##a2
ae
##c4
a0
##82
fe
ed
##c8
##ca
##c5
c0
##c2
##1d
##8a
bd
##c3
4d
##a5
de
0a98
##85
##4a5
fd
0808
801
##0b
5d
9898
##a06
1d
##1e
30
be
##0e
##6c
7e
1208
01f6
dd
##c1
##1a
40
##12
100
##ab
3d
8e
3e
##80b
1272
e0
7d
8d
ee
2054
d90
1490
9320
##18
##cb
##c9
##69
9e
d0
21f
340
54a5
##6d
0658
4e
0200
009c
0bc0
06f
ff00
##67
##14
##1c
60
##6e
##19
##1b
f0e7
7001
980b
1204
80
f6e7
##63
##15
0af
##13
0070
b0
00f
##905
##d2d
104
206
21f0
0004
##765
7002
007a
##62
8018
##6b
0564
640
d90d
##65
##988
50a
0306
7a06
681
##61
500
323
108
509
8905
2d2d
1210
##66
##60
008b
##6a
696
50c
16a0
501
##fb
##067
0038
4988
508
2800
0a01
0de1
7101
5000
0bb
6e6
eb20
101
204
6404
12eb
05c0
0035
1f90
828
##782
0601
3908
207
##506
0404
1021
##465
##080
9001
107
616
7200
7a00
0300
##564
##011
00b0
9765
70a
9009
0b8
203
12ff
504
3500
0304
0015
281
e58
0bc
507
##fe
10a
026c
##c09
e1bd
##92e
636
##f8
##f4
030a
656
706
b067
6782
8282
##3ca
502
##706
14cc
b400
##806
503
0a03
1049
f09
726
0578
0ac6
506
746
10c
0804
1400
##f3
##9ca
##f2
658
6d00
fd4
##f1
0500
0250
b600
b002
##fc
686
103
209
0b00
##906
##777
b36
6c6
0033
7801
106
10f
##008
##f9
abf
##fd
d928
##f0
707
add9
ae00
##6fd
6e7
b8ad
06a6
##f7
##f5
aa00
e54
50f
208
0ba
bb00
bf68
434
0ad7
109
##209
a800
3000
4bb
002c
703
6f68
444
20c
0dc
d40
f0a
1239
6fac
##d30
736
6573
9af
1c00
3306
093
5004
d23
a73
0019
e7b
3200
20a
##d62
0c00
##e8c
##d5e
200
626
##d59
e53
f0f
393
0550
##206
##5ab
17c
b000
##737
201
20f
e51
481
102
d7f
f08
2a00
e5f
3c0
##ff6
ba00
528
a600
0a02
202
0a06
1004
2c00
0da
bd00
8000
bc00
48f
b900
##6fe
##00c
cd7
##eb5
6401
a500
06a7
f0c
be00
b200
b800
b300
e5c
b100
2b4
b700
04fb
af00
d9a
d900
##a69
d73
##00a
a54
##b68
##555
f06
386
0a04
83ca
##dbd
d801
##989
b500
6400
##3ce
##e4b
701
6a00
786
c000
##78b
5500
0d0a
4011
170
7400
##16a
1821
4900
e56
##ecf
333
40c
6f00
fb3
353
3e1
##78e
4100
ee00
a000
cc01
f07
6c00
8600
##7a8
4d00
646
##e38
dc6
709
fc6
0157
##502
1800
##d6b
446
6dc
00f6
6012
be1
##20f
##b85
7000
##efc
##db9
##202
ec00
2500
##962
b81
##bc1
6000
##a83
10fa
7375
fa1
8300
a07
##e95
##00d
##c0e
##d2a
f400
##c06
##7ae
e5a
##768
##91f
304
8c00
23f
636f
70ac
5400
##e86
04b4
##57e
a5b8
1ff
##aaa
##339
2300
403
6d6
a58
0f00
5870
##e49
9c00
003a
934
309
8200
##50d
b405
##e0e
b0c
##e34
6465
##ace
0c6
280
6800
##d7c
5e1
##d76
704
8a00
##c0d
##d93
9600
111
##e36
f02
0503
0b1
##d32
f5c
fe1
d800
##8f4
a200
14cd
238
4d4
c03
5800
e772
14d2
##7c3
6500
3800
e77a
##d17
8b4
1100
##0a0
7009
e600
5c6
181
e23
7800
4800
dbb
5200
9700
f04
e800
e200
5100
##e4e
3806
a100
dc00
e000
f03
1268
307
9a00
c09
0090
##d7f
14d1
9000
1a00
554
##a0b
##3f0
14ce
##e7c
8400
0d8
696e
534
e100
3406
846
##d5d
7900
4a00
##960
d28
de6
##412
14cf
3a00
306
68df
14d0
6b1
9800
8500
##e37
a71
1200
8ff
c200
9b1
14d3
0d00
##763
5600
c23
c800
6700
##40a
2e00
5700
a700
##7a5
451
##bc7
9e5
4e00
2600
da00
##927
1003
9b00
891
##c02
8900
0239
9900
6d4
##509
##92c
3b00
1900
702
##e2b
##d79
4400
e500
##e31
a400
3d00
8800
##783
dcc
##7f4
##72d
3e00
##b0d
923
0e6
##7c4
8e00
5f00
##7f8
##7c5
1d00
8100
4c00
##74a
d400
##98d
002f
##e24
5c00
6200
c100
2400
fa00
5014
3600
ca00
f000
9f00
4200
##b65
5300
0e00
7500
a300
f606
##a89
6600
c53
9400
9200
14d4
##d39
fe00
671
6f6d
4f00
4b1
4600
f4a
ce00
0a61
0391
dd00
5e5
9300
1700
ac00
301
fc00
c900
8b1
ea00
6100
ad00
5a00
##ddd
d000
8700
f800
##a0f
de00
1500
334
9e00
7b1
##e05
##99b
##76c
##4f5
6b00
3900
afa
6e00
1e00
7e00
5e00
f200
d600
c600
b93
c500
756
##b61
7c00
##7fb
893
##ec7
a06
8b00
c06
733
1f00
2200
116
3af
c400
7f6
7600
5b00
d500
8d00
e900
1600
7700
0a05
c300
cc00
f500
##722
15c
9d00
c01
2700
##d6a
bf0d
##b27
9100
e81
a46
604
f600
##94a
9500
ed00
##73c
d200
2c6
fd00
0a0f
4b00
##79b
19c
bfac
##5ae
903
d36
cf00
7b00
e300
19a
e400
##57d
d2f
2d00
##2c8
0b4
cd00
##9f0
2f00
653
9c6
4bf
381
##322
##ecc
##9fe
ce01
caf0
##d9a
##d23
##72e
108f
a5c
##52a
0a5c
d21
3700
##ac5
06e4
d71
2900
##ef3
##7c2
1300
5900
6300
##406
eb8
1849
8f00
1b00
##74b
##ea9
##522
06d2
3100
907
d07
##d3e
a900
0700
##c0f
##dfc
82c0
5d00
##ec1
d001
0003
2100
##575
##a61
##9fc
##ef8
db00
70c
4700
89ca
bd4
##724
##b2d
##7ad
##d0d
##20e
30c
fb00
d3f
623
9b3
##787
6900
d401
##a0d
##1f0
1f91
eb00
e700
7d00
0501
1c6
##da4
4300
ab00
##7a9
2b00
f100
892e
d100
1f0d
##73f
1269
c700
bf00
938
##e25
adc
796
##325
f900
f700
c34
3f00
d91
dd1
7100
df00
##99d
7777
##d83
##ea3
d300
##e22
ef00
##e9b
cb00
##d77
##d6d
246
654
##df0
##ea5
d201
d700
##df1
980a
193
454
8e1
7f00
7300
dba
6903
8dc
##ea4
3300
f21
e0f
a001
8011
##2a5
##59d
##748
491
##6f2
##e3a
##d92
##b95
1e1
##d99
##aa9
1216
##a66
##a63
##92a
##e2c
##3a8
##8fc
388
f300
cc09
7d4
bd1
f86
##795
##dab
##72a
80f
##0ab
##90e
##705
##760
0036
##e39
851
##e8b
e58f
##d7d
##315
##aca
5af
7b4
321
##e7b
##7f1
##7fe
2cc
##df5
aff
f46
e07
1008
001c
1016
##742
##b25
##925
##d2b
##7aa
##e2d
##d3f
##247
##9c5
b33
302
0037
8c6
##ec8
##52f
##df4
896
##6fc
##e76
##9f8
886
##b38
##d9e
a09
##e97
##3ad
ed1
a53
486
##ea6
##c0c
##e33
##984
##9f1
##efe
254
fb4
d04
##48a
0a1d
##df2
##aa2
2d4
de1
##3cf
406
a08
c2c
407
##98a
##39e
ce1
f81
ba1
##7ca
0f6
##d0b
##74f
##55d
##e55
##76a
##767
##a02
##313
##79e
##e7f
##a8a
4af
##e27
##bc4
f36
5cc
##7fd
##e3c
90c
##32d
358
db1
##b6a
404
##2aa
##b69
##d0e
f01
a02
##b67
0a87
##41a
##e87
##732
##b63
621
##e9e
##7cb
6ba
1010
d83a
fbb
793
##004
##ac2
2bb
d26
cbf
f56
0c01
##e58
a0c
493
89a
##d36
9bf
2f06
##42d
2d6
b4f
##31e
9cc
##eb9
##e0d
##59b
##3c8
a501
##ac3
##da2
##e45
b4c
991
##e48
##524
##525
8a01
##50b
a03
9f6
226
7d1
156
af6
b03
cb4
##505
##3a5
c91
##7a6
##d22
##5cc
8ba
781
##6f6
2b1
0ff
609
##995
##3ab
##7bd
##b35
##762
##b60
cb1
bff
0a63
##599
b86
f71
1af
##7f0
##31a
##e2f
ae6
##418
##5bd
##dee
a0a
b01
c04
d58
##749
6e65
921
##943
909
791
a401
##3c7
bf17
##799
##802
##d8f
951
##e4d
687b
##31d
##b9e
693
##005
##319
##74c
908
##b7d
221
##d05
##e79
##b9b
0e1
7564
c54
31f
8bf
140
##92b
7804
##72c
##6fb
94c
a04
##5a8
9e1
##24f
##d87
##337
751
d09
##d31
71b0
##786
04c0
e26
153
##809
##d2f
##ea1
b9a
313a
a36
5e6
186
0b0a
##d7e
##78a
##249
b88
0363
##55e
bbc0
##2a7
##52e
c71
3401
0032
0a1a
##bcb
##9cd
2e1
##ec3
00aa
##b6d
0d6
904
b3f
4e6
aaf
##49b
##5a3
##a0e
6f0d
593
##5a1
881
##74e
##e29
##22e
##945
01c0
##9f4
3506
##e32
1d1
##5f8
##eae
0d4
##52d
8fa
##9f5
22c
##ef4
0a62
bf34
##80d
7e1
2bf
##744
a93
##b2e
c21
308
0031
e28
a26
##44c
bbc1
4b4
##92d
74c
##949
3d4
##a6d
##db7
##ea8
##3a7
953
ee6
958
740
##dad
##312
##b64
2a1
901
##70c
##52b
##20d
##6fa
5e8
0640
##a84
1b4
##e3b
##483
411
##5a7
2f6
##d38
##735
b09
271
##57b
0fa
d51
65c
fcc
##797
##e9d
2af
cfa
##98e
##9f7
##728
c11
5b1
523
##922
4f6
04d8
0216
##b9d
##d7b
40a
0a8e
##5a5
8b8
##00f
##9c8
6af
##db0
##924
##ef5
##d8d
##7b5
##5a4
e7b6
##395
c0f
456
##da6
##e0b
821
ad1
##e47
809
##723
b28
##b99
##577
ca1
3b1
##6f8
eba
536
##597
##d24
##5ad
723
##dfb
##b0e
##b30
##ac8
##a68
5dc
##ea7
8e6
0a65
c2f
a01
a0f
1bb
##a0c
##daa
f28
##70f
##76b
##80f
##ea2
336
##aad
c56
0305
d53
728
0ab2
##d96
##bce
a81
##d34
9fa
##72b
##4a2
##e5b
##32e
e21
##79d
##7cc
1d4
1b1
caf
ddc
##779
##769
##d67
##948
##729
0bf
##484
##97e
0d50
##df9
##7b7
0401
##529
e91
2e6
823
##eca
##d2e
3606
5ff
9012
##e99
ac6
##764
c02
##248
18f
326
0a5d
a56
c28
33c0
9002
##df8
a34
##70e
##6f5
##a85
90f
##9cc
##b2b
9601
##997
##e73
##e42
bc6
##31c
ae1
##9ce
0a64
##dfd
##733
##31b
7dc
3706
##d78
##50f
b07
b46
d5f
9b4
79a
##73e
##d9d
00ea
##d94
3f6
d54
##39d
##9c1
baf
571
##e2e
423
6bb
1fa
##70d
496
##9c2
##902
daf
##76e
##6f1
##784
##bc5
##ef0
##a62
##6f4
##4fd
##003
##789
328
bbb3
##3c9
e0a
##e35
##d25
##98c
871
##ac7
##52c
dff
##225
##aab
708
##c07
##5a6
211
##32b
9dc
591
##00e
##2a1
##38a
e06
d4c
4bb8
e08
853
453
##e7d
b08
856
551
##78c
##7fc
8d1
##944
##3c1
##7cd
##d3a
##e30
8af
eb1
##807
e09
##24e
603
a2f
b201
##e5c
606
##ec2
##78d
53f
##d3c
##7a7
12ed
e46
##a6e
##d74
##48c
bd59
##94f
e04
f54
##70b
836
##b97
##3c3
##bc8
0ac4
0ac5
3e4b
##ecd
##a8e
##b6b
##e82
88f
6f08
##ec5
##3ae
b846
##55b
##909
5dbd
c26
##788
540
906
3c01
##e2a
063f
2201
##244
ed30
33f
100a
628
840
##bca
##295
8201
d301
##929
586
##6f7
d16
5953
b26
##1fd
5b4
e506
faf
158
6f6f
##a82
25c
##eee
##e44
##738
##d35
6c3e
2074
##7a3
808
##76d
391
##3cb
##5b5
8bb
##d5b
22f
fba
ccc
691
##94e
4443
a9a
b53
7c6
##ef2
##579
cbb
5d1
b54
3dc
##efd
651
##aa5
2063
06c0
##785
60a
##a65
c81
2801
##7c8
##3c2
5b3
##92f
##50c
0e8c
ab1
##9c4
##97d
##7ce
511
b34
1072
a5f
9c01
##ec9
d86
bba3
7168
dd4
##3c5
##ac1
4ff
954
##d27
##e3d
ca01
##e4a
171
426
##5ed
b06
ce6
##727
##dfe
##1f8
##e7a
926
##7ab
a86
db4
0302
##745
f88
5001
##986
##d33
ce09
1b3
##d55
f2f
40f
993
##efb
2ff6
c46
##eab
946
##941
##74d
09a
##761
cf6
##29d
546
##a05
##ac4
##d8e
1a01
##d66
cd1
1801
##741
e71
##5b7
##6f0
a16
##d95
6866
##507
4341
##4f1
##2ab
4143
e16
##00b
##e41
f23
d06
##6f3
##389
##eb7
##98b
##b2a
6174
688
##734
f11
##9f2
b8f
0a86
##a8d
##ece
cd4
##d75
##db5
##4f9
dfa
e40
436
##3c4
4528
##78f
8cc
##38f
ab3
##743
293
3ff
##739
##317
223
aba
351
1dc
##b66
316
##e75
##397
##41b
48f7
##90c
##7f2
##ef1
##df3
6d1
##aa4
c93
b21
be6
bb8c
8c01
4ba
##e57
3a1
##73b
##d2c
##38b
##acc
ac01
151
d03
##94d
5f6
##3cd
528b
80c
cd09
##acb
236
##e8d
cf09
fbf
607
##3aa
##b2c
##48e
df6
97c0
##e4f
fb1
b71
191
bbc2
##243
##314
134
45c
5bb
256
940
##38e
6bf
##4aa
c5c
##b6c
##d9c
83f
b23
b5f
##3a4
354
##999
##98f
63f
##acd
##d89
c801
526
##417
a91
c07
cf01
##22d
##725
##e77
753
096
0b3
##e88
d009
##2ae
##a64
a28
##7a2
bf97
2001
d109
e3f
##80c
cdc
##595
##747
##a60
ab4
60c
##e3f
cd01
c0c
##ecb
3232
471
30a
##205
##7c1
##24c
##329
##e78
d34
##dae
986
##007
bdc
d02
##77e
9d4
4c6
a21
##d3d
9ff
e2c
##3a3
##33e
##9f9
5d4
##9fd
##5be
##9fb
99a
##e83
##495
d309
##e3e
##41e
##ec4
cb3
396
##e52
##99e
##3a1
##3a2
d56
##731
##427
cc6
3e6
ecc
6f34
##e74
7af
##707
3001
3d1
##527
d5c
d209
f51
15f
##a8c
62f
071
c51
##7a4
##982
aa01
##d3b
f53
8d4
558
4dc
ea01
d44
f001
4601
fd1
##d85
7bb
##df7
a51
9b8
##aae
90a
##50e
0a0a
6572
936
e34
8801
##e53
30f
##43e
b51
2dc
b56
24c
##a6c
8b3
##da3
002d
##e54
##bc2
82f
##d64
##90f
608
##ded
95c
##9cf
f096
9bb
b96
b02
a601
49a
c0a
ebf
0cea
##983
e03
##aa7
08c0
##429
##e5a
##4f0
3b4
1401
d46
b91
d409
ad4
956
3801
##e5d
##ac9
807
##d8b
bbc8
##22b
c1f
371
##9f3
##775
00ff
ab8
f93
c08
0a32
d93
##207
803
258
6811
##acf
##766
854
c88
##b62
ebb
##80e
c86
##a6b
ee1
##dbe
##d9f
##b2f
6e1
9201
4e1
0007
8f6
9801
091
d101
##ebd
dbf
0a5b
##da7
ea1
8001
##9c3
##327
0267
6601
34b8
4a01
aaaa
7320
3206
##b22
ae01
64c
234
003f
94a
da01
##7a1
8601
39a
##9c7
6f17
771
0af5
##eed
b0a
916
244
##414
816
1501
ec6
c36
dc01
##942
9e01
581
##eb2
0af9
402
3201
bb80
##d68
##b24
3a01
826
2893
f9a
7a01
##e8a
7a1
f96
5a01
5c01
e01
##d97
##20b
82c
9401
7e6
##d8c
2940
0a6d
7401
bbc3
1f6
6f6e
a96
##7f7
##2a3
##a09
##ead
a801
##310
3e01
##eb0
e401
e36
2ba
##e84
2401
acc
##2a8
7fa
e801
##43b
0a69
9e6
5201
7cc
da1
4001
3b8
32f
f26
35c
6f97
be01
##eaa
##7f3
3409
##4fb
634
911
bbc6
##94b
##d69
1201
##20c
##241
416
bbcc
##330
7068
##da8
c401
a23
##e56
##da5
4c01
##2ad
4401
fd47
251
e201
##d84
e601
902
##49e
fc01
0029
bbd3
4e01
0039
4801
d0f
2a01
b16
1c01
516
8e01
8401
2c01
bbd0
##7cf
##a07
bbcf
fa01
bbce
196
4a77
9d1
c16
428
971
c601
136
2601
1bf
##702
bbca
1e01
fe01
f801
##d9b
ec01
7201
7c01
f201
##d88
db3
bbd2
##5aa
eb4
ba01
##a67
bbcb
b5c
7601
bbc7
858
abb
b0f
##94c
5601
611
5801
1e6
811
6201
##5a9
bbf2
6c01
##da9
228
e93
0a2f
d8f
6ff
##7c9
##318
##d86
##90d
##229
3601
6810
356
##a6a
##39b
c001
6e01
9a01
##b05
8940
d601
2e01
0cc
ee01
##d8a
bbcd
85c
bbdd
6801
6cc
0e01
b801
556
f401
bbe0
e001
d234
##d6c
2b8
6a01
4201
6001
##947
##e85
253
##bcd
bbd6
c4c
7e01
5a1
##975
bbdb
b001
##907
bbc9
efa
d08
66fd
cb8
##437
734
5e01
a201
b58
##383
888
bbdf
7b8
9008
##6f9
b601
##29e
60f
##7c7
0a5a
bbc5
f8f
ea06
##2a2
cff
bbe3
##da1
##41c
bc01
bba0
f16
##b29
bbe4
##e89
##d7a
b04
##736
##c0b
b2f
##48d
f601
2b3
de01
0a5e
bbd4
bbd8
##9c9
##222
5401
296
bbe2
bbeb
##311
c201
5bf
4cc
##985
bbd5
a3f
0832
bbec
edc
##33c
##a8b
3fa
aa1
##bc3
0aac
##245
bbed
1601
##430
11f
bbd9
bbe7
##e8e
bbe1
##d37
bbdc
##805
##e4c
981
bbe6
##77b
7140
##730
##24d
3230
##e7e
##72f
f4c
ed4
##33d
bbd1
bbb1
##59e
##ebe
eaf
7ff
##9cb
311
0026
##435
d81
bcc
##bc9
bbd7
bbc4
##482
##410
c9a
##3a9
bbe9
b852
bbda
bbe5
##d91
##335
bbea
754
##5a2
##2a4
002e
0059
996
0a40
5b8
804
700d
6b4
a40
##d60
b11
##b7e
##489
5fa
000a
##42b
bbb2
401
7bf
bbde
##bcc
6520
##7be
6973
3b3
##d29
##d6e
e0c
409
##987
c58
c96
d0c
##425
65f
f0e1
c40
f2c
291
##e5f
##4f2
154
##e5e
##c05
##42e
3106
2044
440
bb40
4d1
bb9c
70f
d88
0a59
##49d
0ac0
0006
b44
##b0b
216
44c
ef6
1cc
0afd
##386
bb93
458
f34
521
d96
bbe8
##e43
##2a9
32c
bbaf
bbae
bbb0
bba4
##29b
d90e
0d1
dc40
c00c
93f
##77d
3bb
##24b
0a66
##b6e
bb9d
##ef7
553
bb98
d0a
##38c
75c
bbb7
bba8
##e59
##382
##aa3
0668
bbb8
408
601
54c
806
##73a
7ba
0a20
##4ad
10a0
bba6
2ff
##4f3
802
bbb5
eff
35f
bb96
bbbb
bb9a
7bc1
bbbf
bb9e
55c
bbb9
bbac
95f
bba1
fdc
bbba
6361
3031
4fa
4a1
##d65
3bf
bbb4
0679
bba2
62c
bbad
a11
1a1
bb9b
3b40
bb01
##d63
##4fc
bfc0
##73d
##242
2069
##4f8
72f
746f
e555
bb91
fe6
00f0
bbaa
0a1e
421
06dd
bbbe
e44
e2f
bba9
##aa1
e9a
0043
##e8f
c8f
bba5
a8f
##384
4b3
188
bbbc
2066
29a
92c
bba7
bbb6
0639
d11
f6e1
2ec0
bb35
##d82
c44
##e51
9bc0
##ef9
##48b
8a1
69a
52c
91f
##a87
588
44a
788
bb97
928
026d
e5a0
bb90
bb9f
bbbd
42f
596
bf23
bbab
6a1
bb92
6812
55f
cba
##332
f40
6669
2fa
e02
063a
bb99
0a0b
##41d
bb85
7017
f7a8
##387
9a1
6fc0
a733
##485
bbf0
0a21
0609
6b8
##7f9
bb94
bb95
1ba
##227
111c
cac0
0a60
##aa8
db8
##33f
0301
06b0
73f
##43d
72c
fe40
834
744
75f
a3c0
8b26
bb64
bb8a
d2c
4a7d
a4c
4a40
2d40
25f
9ba
6c5d
5834
6740
a2c
##b75
c140
bb86
a88
fc40
2d1
##bcf
##4ae
bb21
##709
##38d
064f
0681
##90b
bb84
6b3
e96
43f
4b8
45f
80a
758
bb8e
069b
3890
0628
##4f4
240
6814
bb82
e7ae
6574
1b8
##385
d01
bb8f
0a12
0693
5024
92f
3906
##7f5
fb8
fff1
3ba
45c0
0a23
bb87
a697
bb83
488
988
bb8d
f5f
bb88
0ae2
2e20
6164
644
a44
bb1e
bb8b
6354
bb0a
0603
##4fe
3006
63c0
f58
6588
9b01
58f
85f
0638
f44
##d61
5ba
45ab
bb81
##4ab
##415
47c0
036e
##388
b9b0
8540
064e
68f4
aec0
f91
844
0680
003d
0b01
06c8
bb89
6701
3fc0
bbee
062e
0adf
0654
7072
50c0
544
bf22
##413
c3f
0678
6c70
c2ff
7b3
0a24
0027
59a
6e73
f540
3ad9
06cd
9328
0644
b0c2
00fb
bb19
##4f7
0a1c
6f23
a540
4465
0a5f
6101
42c
0d5e
eb3
52f
##331
0044
0a27
##419
e4c
c2c0
0a3e
##487
6246
6f2e
62c0
cec0
0a22
f3f
68f
##1f2
13f
7277
26c0
0aa8
0a25
bf1f
b2c
3440
bf36
000f
00e7
0056
8b40
##333
7bc0
c5f
1050
1816
0cc0
f618
02c0
4120
1211
0a26
3fb9
##33a
abfa
84c
060c
00c5
21c0
602
1238
6f40
002a
582e
10c0
0ae0
0ae1
6501
78f
500c
4bc0
8740
000c
ffc0
7420
3120
7374
0ae3
bbfb
ff80
##4a3
3940
e508
bbfd
2ac0
d701
2050
6f67
5d01
24c0
0aca
1140
09c0
0650
05aa
1220
e7b2
757e
bbff
0045
2032
##1f9
0673
bb12
bbf6
19c0
fa19
3240
068d
00fa
000e
##4a8
604b
6840
003e
2d09
bbfe
0642
0a16
06e3
1040
bbef
bbf7
0da2
b8cf
082a
3f11
##1fe
ea40
0140
dbe1
069d
0a0e
0047
bbfc
bbf1
6c65
0629
bbf4
3231
616e
1ffe
0649
adc2
658a
3309
0684
c8c0
121f
0a47
067b
7461
7469
0010
bbf3
5ace
5040
0a11
ff53
bbf9
e7bd
0737
##4a4
dec0
bbfa
0009
43b3
bbf5
06fb
0dc2
05a0
ec40
0648
3469
002b
a2c0
70c0
0667
1b85
0604
0d62
2840
7265
666f
bbf8
064a
0c08
3009
1702
800a
0a46
126c
0618
067c
ac40
06c1
06c5
2040
6963
8180
2d06
006d
##4a1
10e5
06d3
06c2
bf40
026b
3c40
0041
0a09
6fd8
##33b
5b40
06a3
e7b8
944
##4a7
3136
10c3
c7e8
0622
bb50
0641
06a0
66c0
d901
0acb
3a06
0021
7097
0665
b701
340a
e7b5
cc08
0612
6503
7c40
006a
d940
005c
656e
06db
6432
7040
06af
e7b9
0632
e7b7
6f72
ff75
cf0f
##1fc
a585
0d82
065b
00c7
170f
7340
0075
0666
9740
06d1
ff40
00e4
2301
e7bb
06c6
cdb9
5906
3cb8
0652
##1f3
0670
df35
6a33
7465
06be
2c09
0672
06e1
0240
582d
0f04
71c0
0087
7f01
e7ba
5833
2e09
06ea
83d3
4f40
e501
06f7
8394
9940
082b
98b3
f880
34c0
0a73
31c0
00f5
b6c6
bb10
2172
23ba
3209
22c0
e7af
f7ef
01e0
bb70
18c0
ff2e
0ac2
001a
06d9
06de
06ee
067e
4815
778b
9e40
17c0
6fb9
##4a6
71c7
2b48
51a8
2e06
0008
06bf
0623
d9a4
e7b0
6f75
b36d
7d40
0540
0a07
0661
06e8
##4a9
e5e5
06ce
3840
5832
06e7
6540
1740
00c6
6431
20c0
bb1a
06c4
00db
e7b4
5831
06b1
f040
01aa
ff01
1240
00e9
0624
3109
06ac
bb56
e740
06b4
06aa
fd4f
0a14
e7b1
06da
1a31
06bb
e7be
067a
5830
06fd
50ab
582c
0682
e540
582f
98c7
e7bc
06a1
5675
##1f1
0637
068a
50c7
0692
0b40
0ab1
066b
030c
06ba
060a
0ade
068f
2f09
06ca
06df
79c0
934b
0f40
e240
1e40
0611
0646
0653
06a2
6ec0
8840
0631
065d
3330
0691
06e0
067d
e7b3
06c7
46d5
06c3
##1f4
06f5
cdbb
e54d
8c40
0ab5
8f7e
0940
066f
2501
0048
ba80
240a
##1f5
0608
6454
0a99
05ac
06ec
06f9
1640
0663
40c0
0a80
06f8
ed40
2c40
6564
0a28
c840
6377
0621
1101
50c4
0616
079b
06e5
0053
00f1
1d40
3cc0
06bc
3465
064b
0677
238c
0633
00cd
1f40
bf03
b3c0
a040
06cc
6e66
0697
06b6
745e
06d0
15c0
7240
062b
0ab4
89b3
0613
cc40
06fe
060b
06cf
0017
06e2
4840
0660
89bb
bb05
0634
1f80
0662
3e40
5c40
06fc
9340
0635
06f2
eb40
0024
c640
6f4a
9c40
0011
0bb4
06e9
06eb
17c2
##1f7
ed76
00e6
6d40
681a
061d
0a3f
c740
5140
6240
8467
407b
3c0c
4640
0683
060f
0a17
06dc
8040
06f1
06b9
0656
f006
65c0
5440
0651
fa57
068e
067f
c540
0606
66bf
0e40
c1c0
3040
06ff
bb49
b040
006c
9a40
ee37
06ad
fc50
0671
06bd
81c0
004a
bd40
d903
da7c
061c
8bc0
e1ac
c424
069f
0688
0659
af40
0a08
061a
90b0
6440
dc0e
c040
b240
a4c0
06d4
0605
068c
00ed
8240
de40
df40
c849
5940
b440
9b40
7740
0669
e640
4540
0042
4c40
06d7
0690
06b5
bc40
d740
bb1c
d450
fd40
0610
0630
bb1f
346d
ca40
0a41
a640
d92e
8140
23f4
061e
2140
e840
a140
0a70
b857
069a
f840
5740
0676
c880
064d
11c0
06a5
da40
2540
0602
0675
bb5e
fb40
8e40
bb34
9dc0
bb11
6340
b940
0097
06b3
a440
0664
5e40
066d
06f0
1cd7
06d5
bb3f
f65a
c377
ce40
77c4
7840
6140
0440
0698
2030
0b80
069e
bb4b
0bc5
b740
7e40
0840
0abf
d640
aa69
101c
be40
2440
06b7
4040
06cb
db40
8640
0a71
e172
bb73
e940
0617
1840
9640
9140
0340
06ed
7034
06f3
0b87
8b4c
5640
0a67
061f
065f
0685
6e40
06f4
fe91
4140
54c0
3220
06d8
00f2
9d40
0620
6c40
ae40
a840
d3c0
064c
f008
0d40
4940
0607
e340
5701
cb40
5f40
8340
0a29
2a40
5d40
06ef
3f40
d540
0205
0c40
5540
8dc0
03c0
5bc0
fe36
d906
9540
d140
d440
a6c0
1940
0469
9f40
2061
ba40
0bbe
3640
3740
6f03
2340
9240
0ec1
c440
0740
0674
b340
5340
0689
bb52
9040
e040
d040
0593
06d6
1540
b840
06fa
1440
0655
b140
06c9
bb15
2e40
060e
9440
065a
062c
e440
aafe
1c40
23be
32c0
c940
7301
06f6
8d40
0ab3
cd40
c240
8a40
5a40
aa40
280a
a240
6a40
d240
4440
063e
fa40
fb5c
ab40
0626
c340
06ab
2640
8f40
5d50
bb4e
9840
5960
b364
6502
bb6e
ad40
530a
062a
d840
f740
066e
d340
5240
4240
a940
563a
e140
bb03
a740
bb69
df3c
06b8
065e
5549
0a7e
eadc
2240
3701
06a8
bb46
5cba
0701
bb4a
0625
062d
bb36
6b40
7efe
6dc0
02c2
3140
4340
06a4
f640
0694
bb7c
5f05
7809
671f
069c
ee40
063d
0619
56c0
f122
b640
0018
0084
004b
1340
06b2
bb20
7940
2b40
6e6e
0615
2f40
0a72
2740
6e6f
008f
12fe
bb2a
bb6b
cc70
066a
bb1b
1b40
06ae
0636
dd40
068b
bb75
7b40
bb6d
3037
bb32
bb54
8440
c0e5
aa5f
060d
28b3
8701
6640
bb7d
cc50
6f22
bb65
42c0
7440
2e05
39a0
bf5f
3d40
e16a
bb5d
bb4d
3540
a340
065c
1044
b362
bb41
684d
bb58
4740
bf44
0a68
bb45
3340
1a40
1a70
5cc0
0a85
f240
b540
83c0
0a33
4b40
bb16
35c0
bb3e
bb0d
06a9
72c0
0687
f940
f440
6420
bb3d
1070
00ef
7c10
a58f
bb2e
bb0f
bb06
bb38
f140
263d
063c
bb08
bb67
ef40
f340
adfc
ddc0
9c9a
0614
06e6
d15c
2071
bb30
##1fb
cf40
344a
fda0
7f40
120f
062f
0f3f
36fd
7a40
bb44
4e40
6f45
bb68
0657
0ec0
a71c
2bc0
279a
0046
bb43
7540
0ac7
bb3c
e5f1
0686
bb3b
d9a5
6940
9d01
bb07
9101
c8fc
bb2b
bb28
bb22
bb2c
3bc0
0089
bb26
5840
063b
3a40
0647
6040
7640
f901
c3c0
bb5b
bb7e
bb0c
061b
0643
adc0
547e
0086
bb57
c576
bb1d
bb14
101e
007b
bb60
dd01
bb4c
8636
bb09
addd
0f01
4c2e
40cf
0699
bb0e
4521
e1c6
20cd
8b80
acff
f42a
001f
006b
0a84
5e17
bb6f
5ce1
0ac3
bb5c
bb51
50c2
bb7f
bb6a
34ed
bb72
87fb
103a
bb62
200b
bb6c
55d1
14c0
5080
bb18
6172
abfe
bb04
4d40
bb76
00c4
0155
7eda
c026
4bdf
00eb
707a
bb17
0ac8
3420
bb47
3901
4fb3
ab01
0a19
bb3a
00ee
2e55
cf86
e23c
3478
007c
dd80
616c
38c0
2b4b
bb25
bb2d
ec80
bb23
bb24
0645
0ab7
bb7a
3c13
ba15
cf2e
39c0
547f
e158
3f0d
6d01
bb0b
7501
0596
f0d7
0082
bb2f
bb55
fea5
0b61
b501
1f01
23c0
bb31
bb66
00f7
00e1
3d01
d39a
bb27
bb37
5901
0901
507e
12c0
4501
4550
0093
bb48
0695
fec0
2101
2824
6f48
5fc0
4f30
bb74
bb29
1ec0
c8d5
4d01
6563
6c1f
742d
c6c0
001e
bb42
066c
c101
6b01
cb01
676f
00ec
bb02
4eb5
2701
0025
2f01
334a
0a89
bb5a
7fe1
f02c
1901
61c0
2b01
2810
0627
bb78
bb33
4701
5301
f813
bb71
41c0
7365
fd01
c135
5501
c69a
5b01
bb39
4ec0
3421
bb59
bb61
006f
0149
6173
3c80
bb4f
202f
6901
bb63
d635
16c0
e817
3132
c380
0a2a
5089
a69b
bb13
e057
df01
1c48
0f1d
3402
c23a
9ac0
fb01
2d77
0d01
1026
bb7b
1701
4b01
10f2
bb53
6d61
ff06
db01
c5ef
8501
e3a8
8d01
0af7
4901
0a10
ef87
bb77
340b
68c0
3f01
04b1
c901
009f
ed01
d9c0
0a6a
00e0
0261
0696
c699
9f01
345e
f0f2
e5cd
6e74
36c0
77c0
0049
3450
3501
46c0
e101
3704
1d01
0a2b
28b8
2901
b901
1580
c301
d501
23d3
7701
3e95
0057
0255
0a50
5271
51b4
7220
0a74
5f01
7d01
c2a0
bb5f
d41a
2d01
0ab6
1267
e301
1950
3cb9
c501
a052
7901
b101
0062
dc4c
7c0a
bb79
43c0
1301
8b01
91c0
9701
3403
9301
fdc0
e0c0
1ac0
92b7
0012
af01
0a0d
ffc1
a101
8901
00d8
004d
6301
866f
7cc0
ad01
4101
8301
c648
27c0
e701
8a24
7b01
ef01
2d32
3101
2048
0013
8101
4c80
f59d
29ec
4301
73c0
0a75
afc0
bfb9
d7ec
1b01
33d6
04d0
dc29
cdc0
c701
63a5
f101
3301
eb01
027f
d7c0
701f
430a
f501
004c
02a8
0fc0
bf93
9e59
2d30
342e
b301
9a36
7665
5f0e
3737
bd01
3407
f2c8
02b3
5ac0
3068
229c
30c0
f768
3b01
0ea8
584f
a32b
502b
9501
0ffd
ad3e
014b
5101
8f01
19c6
8998
a301
0481
57ad
f301
153a
0022
b19d
6d52
52c0
f701
a901
0f8f
c69b
24ff
01ed
4f01
0a53
b1c0
7c50
0014
c5a0
3ac0
25b1
97e6
cb77
9901
5479
f4ba
7373
f5c0
d950
0a0c
2ed6
8ff8
b959
90c0
0422
0de2
a5a8
a701
3620
00f3
9af5
c0c0
e1dd
a692
4cc0
64c0
639a
e901
f608
ee70
c87e
50a0
bd6d
7370
001d
2fc0
0dc0
17a0
84c0
4508
9b56
0c62
7e20
fbcb
0ae6
e22c
7765
28c0
303a
6e64
fff6
3491
b9d8
000d
27ee
ff33
0582
6b08
0a30
0a15
b2d2
6f36
bcbe
43a0
283d
f6c0
dc25
1e80
4795
e7aa
d5ae
f351
1962
a9c0
c658
6ac0
6870
0a2d
50ad
f16a
cb48
00fe
73ce
0eb8
4704
0083
dcc0
66fe
b502
2472
006e
0af6
dea9
0068
058c
a6ae
0807
8ec0
1d2a
00c9
7f63
a1c0
d12c
0fdc
9053
363a
aac0
f2c0
0088
3937
f106
0af4
b086
004e
3480
40d1
089f
0a52
e9c0
288d
b897
e31a
5cc8
6f64
c523
89c0
0931
254b
f0c0
1b47
6781
319e
b180
aef8
c6bd
e590
2ed5
96c0
3425
a8e6
0d71
a73f
85c0
6765
cb85
c18f
c7d4
bf08
e5fe
df7e
7fdf
156b
78c0
23bc
ccc0
cf48
d7eb
927f
1703
0a77
0069
0a95
2298
3c53
2280
29b4
5063
f56d
b1b0
bf12
0079
0a8a
0a51
9cc0
ec02
95c0
5018
0073
3e1a
741b
00d4
bfb8
e996
0085
ce0e
48c0
7f93
58b3
ff0f
80c0
0023
237f
21fb
74c0
4631
6011
4863
dd93
945a
59c0
205c
6b0c
13c0
fedb
b44c
ef74
00bc
e6fb
60c0
8e24
483b
bf80
00f4
e544
aab3
fc6d
5ec0
362d
dbb2
776f
f0cf
b4d3
3ec0
6475
00ae
7418
018c
47a0
2dc0
4420
0af3
a02d
c0f3
4be4
fd5f
7023
2cc0
a9e2
fc55
3a20
0aa6
b816
b01f
9dec
93f0
ab0a
17cb
6493
12f3
3742
98c0
7778
9a0f
b15b
6256
372d
8ac0
187f
9a30
ac80
0096
0180
c60b
6356
1080
8108
8d83
126e
015d
6365
005e
3433
0dce
e47e
e53a
44da
b361
b7a5
1925
9fae
4b38
e2c0
6e79
f0fb
3867
0181
3fd9
4670
4b59
0efc
ede3
fc20
d570
8cc0
79c6
3ac2
b9d0
eec0
1602
9dbf
509e
dbc0
3233
ebc0
96f2
7ec0
92c0
fcc0
e5e7
4208
4515
ff4c
fa50
68dc
9512
a0a8
c4f5
5c34
358e
e12c
4047
31f7
a970
d594
6f70
9558
4ac0
b0c0
4466
30cf
36c1
664b
7261
00d7
032c
250d
0573
6cc0
da63
e695
15c5
ec10
3e19
58dc
c50b
a8c0
7d5d
b5cc
007e
7774
85b4
cdf5
2c0d
6170
f876
1fc0
d621
0afa
2d63
18ff
5d39
fc80
c10b
5f70
9ec7
0aa0
7657
e5c0
2423
3435
efc0
6dd6
0a4e
f2b9
7573
38ea
1d44
44c0
49a0
f091
6f1b
0ab9
3f0a
3b68
4674
fdf0
3448
7a0f
2d5e
6561
3c92
00a1
86c0
6956
6202
e3f0
57e5
7b27
72e6
201e
7f14
40cb
f8ea
5f06
d412
d522
88c0
4a83
0870
0064
80f1
5b0d
0d7f
4dc0
2c83
ce28
d7c3
7fb3
abc0
b8a0
1bc0
2f54
a009
7f6c
5825
5e2f
646e
00ca
5009
00c1
007f
7372
00e3
e3c0
6260
9733
55c0
1f4c
2c39
10e7
bf48
b6c0
f7c0
676c
ce29
be1d
ae46
461a
8364
a796
00f8
1083
b9c4
0a88
5e6e
60a6
00e2
32a0
5061
7abe
7ac0
5a11
3020
65b0
2d17
2026
509a
343a
2276
67d4
0a31
3416
8324
9d89
ef8f
0aff
50a1
87c0
d686
69c0
ca32
62bb
008a
6ddd
3eb1
8183
d7ea
000b
0362
0a39
2c73
8d92
29c0
5daa
34d2
3a32
53c0
d539
5545
fb4b
1292
7e79
f54b
210f
a5e3
e6d4
07c0
3436
618b
9a6f
3f97
7325
e353
1415
916a
ffcd
0315
b6a0
1abf
bea9
a32c
3680
c416
bf4a
b4c0
dc70
4c58
a6a3
0a1b
3774
2046
0af8
4cda
be80
0067
885d
8594
7ecf
d295
bcc0
e1c0
8687
a950
f5cd
ebae
0105
f3b8
7163
ba89
5ac5
2080
9c8d
b37a
3dc0
5962
613e
9604
fb3f
b48a
0937
7228
fd99
3aec
02f2
b123
eac0
5580
3032
3459
94e6
8760
00af
d402
db6d
cd7f
cc1f
51c0
9afd
be03
3cf7
71b4
acc0
8f22
6cbb
4de1
7fc0
3404
2ad8
13d8
5ee0
464e
0a9a
f8c0
8915
6edb
19a8
c575
342d
2976
c1a9
7065
b4ce
cf25
99c0
37c0
f6d7
00c8
e4c0
53c8
3c34
6f09
7b30
dbad
d0c0
56fc
280e
c5a1
3557
dfc0
e679
4d53
0afc
d2c0
3235
76fd
0a3a
d84d
07d6
a0c0
052c
79cc
204d
9388
0094
204f
d7d2
94b4
67c0
50c1
6589
0060
cfc0
301d
26c9
68b9
7880
552a
c608
5092
c8fa
49c0
00a9
8f99
8b47
dd62
93d9
9509
34d8
16d0
93c0
ba5d
f616
e7c0
00cf
a1a3
674a
50a3
25db
3414
3419
75c0
1f52
478e
0d0e
d750
0280
a780
ff49
c7d3
009d
5594
79a1
6de6
ed06
2a0d
02ee
0bad
028f
1dc0
135e
5093
0a43
ca11
8c0f
e3b8
04e4
1cc0
8c8c
873f
831e
6964
4981
46d2
3405
29b8
2deb
a7c0
c049
da89
57c2
8fc0
38a8
0a54
b459
7780
c7c0
b8c0
6d6f
33dc
8bff
7dc0
a836
005a
e5a3
cbef
a378
1189
3af4
d6c0
32fa
f3c0
d212
00d0
6bc0
e50f
37db
d2f8
f86f
9fc0
a25a
1eba
48dc
cd74
1378
048a
7d45
907e
77a9
3c74
1e38
5d9a
c698
3a74
0af2
9f80
a74b
25c0
b793
991f
f693
c7d5
9852
3d41
d4ca
d431
106e
1ab5
9555
bac0
b60c
0bde
8f86
0098
0ad4
696f
4dd2
ce20
4fc0
3837
626e
0e07
4d4b
0f94
2313
ccd0
b451
6baa
2798
a360
c0b8
c598
03c6
fb3d
d7ed
40dc
b989
0071
edc0
8e0e
7166
815c
4bb1
1b0c
69bf
073c
0ab8
0a34
2a5a
341b
c279
a5c0
c617
a2d4
09f7
c670
481a
40a3
bf67
fbab
d07b
eb2d
d73b
f0a7
ae3c
e578
7463
71ac
0a78
79de
d283
a6fe
3333
0aaf
8732
5e09
789a
ffd0
7c3e
3470
f089
fed5
e98a
f905
76c0
2e23
716e
342c
010e
919a
655d
209b
31d3
6c61
0a1f
7d05
365c
d28c
5553
3b79
10d9
5050
7b1f
54f9
cc9a
5cde
1774
0a2c
24bb
bdc0
03e1
ffbf
257a
3415
fd43
b932
2759
e0f4
8990
1097
50bd
99ff
9d98
3437
0016
d652
309b
cfac
bed7
6665
50b7
dac0
67f8
e606
dc5f
442a
8461
9a66
a075
2020
9be5
053b
e8c0
1284
0065
0c48
00fc
b30b
35e3
1076
6c68
f060
f9c0
3217
09b9
d0b9
435f
d4c0
00e8
0868
50ae
61d8
1224
3a90
01e9
5a7d
57c0
0a9b
5a96
d8c0
e146
f057
53da
4b13
1090
1d7c
c5c0
52c6
a06b
34ca
75d1
0b19
26d4
b5c0
e554
90d9
50b3
fd45
3493
b9c0
d837
3770
3430
38eb
5cb3
6380
17fd
02ed
3ca0
64e3
8844
faa2
8fcc
9af6
5286
19cc
6eae
114d
c03d
4bfc
84ee
00b4
f9cd
61c4
4027
1a0b
0066
1f3e
0c12
3427
b75f
768f
d5fe
3c54
c4c0
50a9
ff96
1170
9834
f4c0
7134
2c1e
6580
00b9
50b5
ac3a
1180
8780
ee34
0ac1
c370
e556
0377
bec0
13b6
9203
1e36
e51e
e505
0074
5180
018f
2051
c99d
3967
2872
5de5
b4a0
58c0
84b1
098d
861d
d1c0
6e67
b284
340d
c6c5
b19c
6848
6f2f
a8db
5011
3fb6
9db9
95da
66dd
eaa9
55c6
dbda
11e2
4063
a8f4
694a
3439
0095
50d5
8989
35c6
a076
50ac
345f
905f
50aa
3c1c
6f53
25bc
ae80
3c07
c015
0ad6
a564
fc63
b4f0
0a35
4944
0df1
2aab
f356
1707
d2f9
de49
1faa
ab61
1176
0ad8
e6c0
32b7
7e86
e106
e18f
5e94
c6d2
60d5
5c95
5e1c
c10a
ff54
50dc
7145
00b1
94c5
3477
712f
9e39
2850
ed58
22f5
6f1f
9bfb
5972
bf89
508a
aea4
163f
94c9
0078
94c0
7b28
f822
1b1f
22bb
8e19
7950
7e07
008c
3cf4
7506
e14d
dc23
dace
1f7d
f3dc
f97b
97d2
b332
98d4
1ce7
91a4
9532
0571
3fe9
6a16
796d
039a
f1c0
6c69
2337
1086
f174
cbc0
9ec0
bd7c
2620
df5e
a85e
632a
50b4
7412
b33b
a268
0aba
0a4d
c1ac
d8fc
5081
363d
2144
c197
8c26
ff87
fbc0
84fd
2f7c
6fc6
c9c0
11f0
d8d6
50af
0f68
47d4
d483
eac5
c652
50be
341f
5dc0
dab9
62ab
c7fb
3434
8b74
c993
5ff5
b960
410f
f1a2
6dce
bf41
5dea
17c1
287c
3c50
dcf8
67fd
d369
dc72
4177
49db
0a13
fac0
d3f3
726f
e56e
0f7b
3c7a
d5c0
dae5
2529
3468
50c3
75d3
e53f
c6f1
8679
90d8
3139
afd9
9d6a
b594
52a7
1d80
d735
c4aa
0aef
2406
341d
3432
9c79
5f7c
1767
b2c0
b9a7
fb2e
0099
0ba0
c6a0
c3e0
3ada
b3f3
a90e
2838
50b9
f4eb
705b
2af1
8e8c
50b2
c69c
a5d4
0ad2
eb55
39f0
869b
d7d0
2880
9a46
8b83
d475
76f6
e597
4af4
c8b2
503d
0223
b39d
0063
2464
b722
0ab0
f1d8
481c
ecf1
2694
6d47
4fd2
a536
5098
c34d
e1ae
2211
fb25
65c2
19cb
3e7b
de69
6f73
ac04
3a4d
65a3
8d62
9484
74eb
3431
3447
631b
815d
a5fc
a4f5
ca57
e1db
50b0
2ea3
9726
a721
39af
104c
5095
0290
d253
7d7d
6357
2819
75a5
d995
0ad9
50b1
40e5
12a5
83e2
bc80
0fa1
2045
bf73
68d2
0ad5
ed14
8f81
af84
0b8e
ecc0
70af
7c87
5091
5fe3
53b2
2b63
8d02
90ab
bd80
9495
7697
cf07
50b6
c6a6
46d8
9633
e3fb
0ada
50bb
8e03
be17
2c20
3411
3b3a
2091
c7a6
a486
0bc8
bfbe
fbaf
b32f
abf6
5737
4fde
cecf
f684
b8f9
50d8
6035
0a58
3246
342b
5247
f080
8744
9194
b3b7
9911
5097
da5e
79d4
7346
1380
8689
da61
f564
952a
df85
27ff
bfd8
cb80
0a44
c783
aa9e
092a
3799
5339
7369
9658
1d3f
abf0
37f4
7676
8f52
840c
2f29
48bf
db03
3137
732d
9b7d
f39e
7d8d
50a8
0a55
d199
c480
75e5
d51f
532e
3ddb
3ec8
0ee5
3422
4650
5a83
aa7f
3ac1
446c
db11
9680
ea04
0054
9693
5345
005d
94bb
dc02
36ef
7e8b
6a63
41d8
d54a
f36c
0aec
dcc2
0acd
7117
3755
1c53
2471
344d
dfb8
0811
3c33
420f
ef80
342a
3b09
509f
4a9d
5053
f4b4
9339
dfe1
f4a4
a8a5
9d51
50bc
01a3
f4af
762a
0a38
68a9
3f3f
0bb2
4b65
7303
5526
3438
9856
1085
01b0
5af3
1902
3458
ac21
9148
6531
20b9
d189
a8cc
f502
00a5
0a48
9455
fd7e
a7b8
7db7
7333
00d1
0bb9
03d5
0a3c
5272
a54a
8aaf
9927
d706
3444
7604
3423
70d5
5b08
6e2c
e580
733e
c2c4
e1a6
9c80
da03
b25b
8560
3417
2b7d
acdc
640d
e4f1
0850
5e8e
2765
de9e
710d
0a49
705c
ffbd
b15c
ca73
c280
a7ea
3331
fb80
f32a
7f82
2380
88ca
0de0
d8ff
f0f1
d0ab
68ce
0058
57f4
f289
6824
8953
3a5e
e280
3989
0825
58e8
2a69
126d
f183
e256
b7c0
5750
6705
c69d
5481
9342
2a1c
88ba
1934
d290
c6b1
17f3
767e
aa80
74ed
d3fb
940e
8efc
3c9c
e0af
f571
f5a4
d845
4d4f
a280
9762
f104
681b
d82e
6e80
140b
589d
0a76
898d
347a
763a
0b84
d480
5e73
ff50
2596
3c18
9525
2f71
3418
8930
d363
e07b
8380
8099
0fcf
0a45
3426
50b8
0580
cef4
3880
50ba
4fff
1f18
8880
cfd8
2b0d
0081
48df
0a42
937f
b9eb
50ee
aa94
0aa3
6028
0afb
0a81
94da
502f
9eb9
1a4b
fee1
199b
d8bb
ea1f
1751
597d
565a
83bb
66c7
3449
9e9e
7215
9c04
5e5e
0a37
9dd2
200d
9d0d
50a6
509c
3ce9
dc80
3c4b
1165
57ec
e9ba
fe9b
c9ec
89e7
00a2
9bd7
1e34
ce19
39f8
71e7
7cbe
e4d7
155e
2680
f493
e4e1
3221
cb78
a344
d236
00ab
3456
7973
095c
5094
4d9e
4cb3
40e9
509d
7048
dd18
c8b8
179c
8019
903b
2198
7868
f9c1
2f8d
6326
8c80
344b
a5bd
7022
378d
7080
10f1
6b11
7850
19f6
0e38
8919
8ef3
5a80
6874
cf4f
04df
4643
3080
8396
3462
5041
8212
d9c5
aba7
0bd0
397c
0270
eb8f
265f
ef2a
d905
23fe
a080
d7ee
c06e
f550
5046
00b3
0f7d
7625
a3e4
a978
a811
d6df
50a4
aa54
ddfd
0afe
8280
50a5
5096
0aae
abdb
93ef
8929
1de0
342f
c6af
7225
8f80
5d17
757d
0546
346e
affd
f46a
48b3
0bc9
07d0
8e7c
cc96
c431
348f
cccf
21da
3a71
a406
50a7
0357
19e7
0092
50a2
3cb0
6280
f319
af21
5722
2a84
ca80
d3bd
cd7c
1afb
60ce
f6a8
4aee
cbf8
09ae
2073
3d99
0a36
00c2
b280
6813
40c1
00b5
1c84
1c19
80c1
300a
9080
d48a
ffdc
3180
de9a
7366
1d83
1c5a
3097
ed7f
0480
93a7
e180
5eb6
1167
853a
efd9
c3d7
0851
8fc8
1480
c680
0a83
4b54
33cf
eb35
0077
fa17
75f8
89b5
a626
b954
d9a3
e1a2
0b88
566e
5927
6163
89a3
0378
2851
21e9
39ff
fd19
0a4b
7178
8b81
50bf
45d6
5433
2d53
3408
4780
e0b5
cc80
509b
4724
5466
a61f
686f
7274
4e67
e74c
f21d
3457
370f
008d
7a77
896a
d2cc
d406
0ae8
96a5
e78b
6c80
a006
ba43
7e9b
0a7d
c09c
5f2b
ab80
d155
2064
0fcb
4f2b
5e80
3df2
1c80
c8c4
3451
949b
a1dc
676a
bafb
3b60
0072
d919
7409
bc39
4e2b
2b80
4ba4
87a5
0a2e
0ef3
6f9b
63d9
a4fa
5341
3ecf
3b80
4cd8
6f80
94e4
6374
0aab
de80
343d
e28b
224e
3fd7
059e
0aa7
7679
bf63
3a80
861a
1496
7085
205d
9180
c8cc
37cd
7c7c
2ee4
1015
1f9a
6483
12a7
2180
9b37
fbb8
cc32
a948
0091
48a0
3424
8fd0
4d76
7f8d
00ba
3428
a951
817f
9e57
5429
de87
110b
f7a9
5099
8c06
d680
2a4b
d7f0
dbb4
1250
773c
af80
90dc
0af0
0763
6a88
9fe7
6f63
5049
9880
31f5
0ad1
d04f
8a0e
99c3
8c94
6780
2022
b8b3
a8cb
ccec
1141
e649
648f
6599
656b
4b56
7c45
9974
2e7c
3d79
10c7
d3a3
6680
21be
a5d1
3413
32e6
3488
161d
162b
b3db
7b80
d1ff
f1e6
f394
1322
c3b3
bffc
afaf
5a44
ab90
2845
e780
0061
3461
3621
6586
00bf
1524
4080
c69e
6c5a
9a80
c69f
7864
fcc1
e0d7
01ac
59ff
0ae5
0051
3d70
d080
5c80
672e
50f8
da8a
db54
a55d
0dee
7b4f
5728
63db
1280
e686
e380
00b7
7562
b5fa
a73e
8861
e5d2
b480
e2e8
3429
7451
b9ec
6b50
c106
5c26
0a6c
699d
1b32
0055
007d
7c89
4c43
ecd7
f026
80f5
23f1
7b59
adad
da50
cea1
d011
8654
9ed3
341e
2070
2cc3
4962
0076
3446
4f47
00a8
0880
16c9
3466
9bc8
2804
36b3
9b17
b1d8
d180
4818
a719
70ad
7e33
ae48
d743
343b
341a
57fa
7dcb
7de9
702f
9b80
46ca
696c
5b80
4a80
0ae9
5129
fab8
50c5
9a3f
15b9
0a7b
b9e0
0d6e
12a9
2e1c
28c3
00a3
340c
e2c3
206f
d9fe
fd80
f59c
f8f7
bfc7
04d1
b964
e3da
1827
d3dd
0a94
8680
1ca8
7a80
6480
f7c6
128e
a880
be77
6092
1d59
0a82
16e1
b880
e980
0aa4
6695
f5cc
174a
0a18
345b
a380
8e80
5dc9
44f5
bf42
102b
7863
f765
3473
02d5
9aa5
2c80
3412
3946
00dd
347d
0dae
2065
82b0
0aea
ed80
e617
6ede
3d04
7c07
00de
0a6b
70b9
6c6f
3c57
b5f5
ab2d
de5c
0acc
59ce
e2d4
5a39
db80
323a
c980
0aaa
2e0d
0a56
b116
347f
cc2a
92aa
704a
da12
d580
9aef
7380
c2f7
2863
687c
1ed9
54e2
a680
c080
8c46
0b68
0346
34d7
8580
fd8f
74c2
7180
38d8
4104
96e1
d2f4
19e9
35d0
208c
508c
9232
39bf
00cb
3471
d738
0aee
6180
9459
5e54
5417
a150
73e4
a180
609f
3410
189e
7670
52b7
403e
494a
e6ac
8da4
cf80
7753
2a54
00d9
b980
00cc
4065
9ab0
00be
2c06
f6fe
f45a
9b0c
33b5
abd4
89f4
8dc1
659b
b394
9d80
155b
0ace
7874
a3f5
a896
9109
64b2
0d47
4ec5
4580
0488
bfe8
b8bf
9bdc
e330
0ae4
1246
81ff
2b65
1e2d
5880
3250
f71a
a43e
e144
3a9a
e406
094e
58a0
ff70
d9b1
536d
341c
0c80
f105
d780
0aa5
34a0
3ce3
46ad
6880
adf4
ea80
00dc
0a3b
9780
1b80
2870
50d2
df0b
abc7
3f80
054e
3464
5b50
9e0f
ee06
1db0
af0e
9689
d671
1316
0a92
340f
da32
8a80
731d
5043
3a69
f5cf
2bb0
ca46
0ac9
4545
9699
019d
728e
0a57
8ba9
7f80
5e50
a541
d91e
a315
2480
636b
0c67
f506
3445
ff3f
cb3f
f509
0380
4d73
3a2d
a980
e480
340e
004f
ca50
2d4d
334c
d880
5306
1025
87c5
8d66
5e71
eb5e
507c
4bf7
b819
385c
494d
f180
e7d4
b4d7
0bd4
0bee
42d1
3099
b4f3
d280
8188
109d
e068
02e3
4680
61c6
345d
0abe
eb8e
b02f
711f
b580
9984
346c
ff92
c180
5612
3d32
6dc1
6f44
ffa0
f99a
e7ee
fad2
2ba0
9541
3472
0aa1
bf50
3564
6213
0a4f
327c
d4b3
a480
001b
b844
f4ff
1780
8302
a9b0
50cf
6160
011f
4280
eb06
7680
7879
efb3
2980
e409
be3a
810e
7931
0145
dc95
9280
f70c
7db6
5680
eb80
e79e
38cd
0c31
9e4d
3950
b7e3
4cc4
2803
5280
a8ed
1754
da80
344c
1503
1da6
4180
ad80
a9ab
7817
0150
7003
898e
346f
b133
5480
c348
5980
0e80
ee80
59d9
2de2
4a89
5d80
9980
20fd
8080
c099
8d1d
9c94
0ec6
0fd3
227b
8480
8513
5910
b345
50d7
4c23
53a0
00bd
790a
d265
5408
0a4a
d973
a988
e2be
636c
dc3c
978b
f5af
99ad
a004
fe82
2d80
0933
4358
80f7
c45d
2092
f0af
54da
44e5
0a6e
9480
c503
9e80
6080
89e2
0955
b380
0ae7
344e
567b
3474
684c
532d
2473
c923
4e80
6562
bfd9
6c06
3454
78a6
3b18
33fd
b7fe
4137
3280
0209
6fcb
6f33
b479
5f80
d380
f980
f0b5
8f3a
bfcc
f680
4380
7980
7f4c
50df
dd19
2674
c7bb
2b06
7580
347c
1980
00a6
f780
fdab
d587
bfd0
d2a0
b653
d980
3380
efa9
76c8
ca93
4d80
24d4
c580
0a90
b780
6b80
8d80
346a
00b6
468e
1680
97e3
17ab
79d2
a20a
7037
f79d
37df
345a
00c3
3442
2028
10c6
3443
00b8
5070
e8bd
f480
6f77
3c4e
3abf
0a9c
8455
50ca
0a4c
ce80
9380
475f
55ac
fe80
acee
285b
d1c5
0e15
c65a
2780
74a5
00da
3475
6a80
7750
2667
d650
f188
8298
344f
4880
b24f
3479
ce7c
6980
0780
50e8
4480
67ff
2ccc
99fa
0adc
8980
fe49
343c
0bd8
0d20
28bb
c0d5
50e9
0279
e880
e550
f0a0
a571
778e
df80
e56f
2e80
8fdd
9580
0e97
4b6a
83fc
0adb
5380
d497
57e3
08ff
347b
0980
3441
7be5
b329
0a9f
00d3
3c70
d050
cae6
2f75
5780
a128
2a80
99dd
772d
7267
343f
50d3
0b13
0a79
fa3b
7363
46f5
0aeb
343e
cc8f
a2f7
b705
6d80
e515
0b36
4114
d954
5499
0a6f
346b
c7cb
468b
0d80
4664
f050
7280
7be2
19d1
4033
5ae9
ce34
0a8d
5846
7090
f580
6e50
1c63
dba7
3460
50c6
eb23
62ee
e680
15d3
5090
300e
f280
100b
0a9e
8162
d38b
1880
9fba
c780
a309
b080
7872
77ea
b680
5c63
3e80
f48c
ccbf
18fd
d850
75e2
900c
0a3d
5472
7d80
ae25
0ad3
f380
3580
a580
0bb1
1ffc
896f
4915
cf4e
2f80
b46c
cdab
e080
1442
5b9b
50cb
892c
4ca6
0abc
50de
d8f7
980d
9ca9
3d2b
4481
7c79
cc2e
059c
3726
f52f
2055
58ec
e879
bdd9
3afa
50d9
081e
00d2
0a8b
2874
d190
0849
bc34
5a59
4b80
20ae
2c67
3ed9
6368
3467
4f26
50d1
2249
d7ef
263b
c67f
c2b2
01a0
0a93
3b81
74da
e2a0
4bf9
0a7f
57d8
9f30
f990
0d90
921e
a850
de10
f3ab
ff59
6974
1a80
6d7f
01b1
36e6
50d4
ff0b
50e5
0aed
7f8c
19a6
acd0
18b1
61b4
8add
f08e
10ff
50e3
2005
18fe
eeb3
f469
f752
7050
103b
0e10
5019
f8ba
e906
0af1
6364
94a8
9aca
fe4e
8e53
caca
ea52
b0ab
0f80
3c7d
5b16
bd50
3396
7abd
e5c6
fab4
3780
2814
3980
2e31
00bb
bfc6
02db
9c30
915e
182d
d992
7061
c3c6
3c73
6479
706c
7916
347e
71c2
0202
3d80
c06d
02ba
d133
37f1
adde
4980
f2a0
345c
25df
7480
50d6
b1f6
8876
7462
9c42
d6fc
5353
34cd
eb83
cd80
7699
8850
99b7
7e80
0bbc
8337
3452
54ed
1451
7b4b
2aff
fa80
2950
10a3
f0e8
7036
bd7d
50e2
e81f
862a
562b
7ce3
17dd
4f80
23ae
3463
6a70
26d9
5354
7cab
23ce
9d23
f0b2
50dd
7381
2d73
3455
32a1
0aad
ed90
0a8c
938e
304c
b333
70e0
a6a0
0ed2
1232
e14e
4e76
cf3b
8e2c
5312
0bd6
e585
4048
4f50
a124
797a
2c90
02d7
45b8
73cf
0abd
f570
7008
87c2
4870
a993
0052
3476
fcff
27d2
2e8b
c3b2
2580
8ff0
8009
0b85
551c
700b
e706
af69
00ac
496e
3c1f
8893
e44c
0add
daf9
328f
f5de
2072
5007
8e7f
00df
12aa
23ef
c704
7276
2cec
292b
d66f
45ca
98c3
856f
6817
7094
c5c8
c882
5e25
b9ff
0ec2
9832
8c8b
f4ae
67e2
3453
9bdb
28ba
3670
50e1
c25b
c30a
5994
7c80
50e7
ae93
53a1
94ec
009e
0c4c
5844
a5b4
ff32
b27c
dd04
205b
8ede
2806
b971
5e7d
d163
50c9
7f46
b9b8
67b1
3886
34f2
0aa2
cd2a
6f50
500f
0a9d
009a
10ce
50ea
d9d1
843b
5beb
df4e
352f
04fe
6c5e
3336
7b67
2bc7
8186
101f
6f8b
8571
a2de
c3d2
db09
5069
9466
0efd
7379
7423
f1d0
eb5c
383a
cf50
6a3d
bc1e
50e6
6a0d
105d
97f8
dac4
e950
0a96
2956
82a5
50db
0b8f
d949
e6be
0144
a198
6469
f72e
1145
ded9
005b
0172
0bb8
756c
90c8
1339
8f8e
019b
b3d0
6dcd
9587
50e0
aa27
d211
d941
7ad5
e570
3c60
8d2d
46a8
170a
124f
bfa2
ffd2
ed50
540d
6f6b
b64b
ad28
0283
ecf4
4ecf
f20d
5055
1411
b1bb
862b
ec49
8b50
3cd5
50d0
008e
4d42
1c2d
3d64
0b50
b7ed
1027
ee76
009b
51d6
4cd6
e0f9
0c79
1864
0a8f
34c9
0b07
5044
f93d
59de
3c56
280c
0acf
50cc
3a1b
ffb4
63ab
3657
395b
1088
b251
9950
504c
72f5
6c95
500a
0abb
7ee4
2b47
5c0e
0e2b
79eb
4e7b
ff3e
f0c5
62de
9d6e
3c09
c150
50c8
50cd
2ca0
50da
2035
d005
610b
b89c
6e61
8fb1
7368
4950
7d1b
0151
1495
04aa
5e8a
53f7
e608
1048
46cd
8758
3b50
52fa
d711
cbce
7fb6
0a7c
0ad0
1f65
0a91
4f19
f850
b272
1668
93da
7ecc
688a
21b2
3050
7264
923c
bf3d
3935
100f
00ce
0aa9
1c1e
f86a
03a2
0299
c346
2ac8
3d7c
ac50
4750
3ce7
b690
8070
403c
899b
6e76
34ce
10f8
3c0a
d724
d685
78b2
6887
f637
206e
3c8f
93d2
dc50
0cff
d86f
3a7a
5350
8ed5
00ad
6050
507d
4233
a050
cd94
87e9
102a
184f
0b83
3531
2e1d
e921
bcff
f1cc
34ef
292a
6570
e5c7
fad6
dfa3
7247
eb27
5088
01a1
3c86
50eb
074b
4850
89db
f0ed
1aef
5087
096c
3363
21fd
4604
616d
7070
20a0
5ccd
3cee
2e4e
731f
fef3
d27d
9250
6620
8128
f6f3
5603
4953
d445
282b
b943
af52
1047
1041
9b50
8f7a
ec26
1720
534d
e69f
db10
e1c7
50e4
ef73
1091
181c
3556
4c52
eea6
ed5d
3c55
9c2c
5852
967d
f36d
3caa
527e
afad
00d6
830e
c050
fcb2
cd76
f961
520e
3509
c1e1
34eb
03fa
d2eb
d8bc
4b0d
f2fa
0873
3893
d027
00b2
7779
5006
fc14
45dd
9f75
6273
81aa
6e54
b2aa
0549
4e4e
11b4
200f
00fd
380a
f826
f4d8
6055
4461
693e
1d07
be5a
b9ac
a674
6337
d844
127b
ab2b
d80a
4144
ca71
c5ab
4031
55e1
2e04
49fc
757b
cd25
9b1d
0dec
caf3
a05a
2867
5459
768e
10aa
cdbc
d3f1
623b
00a4
7f56
8785
b5e4
50ce
5083
50ed
515b
a5c6
108d
37ca
206a
d768
6470
fe86
b3b6
0f93
56a3
0562
578e
aca0
763d
01bc
9f6a
fe15
a8b1
ac11
0e46
50fc
5937
42e1
e9ca
acb3
3850
cf9c
2374
9d50
102d
59c5
5450
f3fa
6d70
c72e
022a
bf09
7773
bf5c
1043
0805
3c77
31be
c7d7
4e3d
f7f2
5842
10d7
14d7
b90f
faac
0e63
7fc8
81c3
501f
141f
6fb8
af91
2081
c850
9589
32e9
2591
02a2
3038
5420
63f4
ccb8
0bb3
0589
f6d8
7031
d09f
b692
51f0
38b7
4e9d
b855
a898
38af
d0df
89f0
025d
4978
7971
3c97
8f42
8fe1
fa73
d7f1
1065
ff34
e5f0
46c6
10e2
20a1
232a
34db
0939
0d24
86da
d2da
2c53
b011
7efc
bf98
dc58
5b3c
270b
c61f
0bb0
50ec
3c41
41d9
6450
330e
a5cd
2478
ce50
bed1
e5ea
f481
3cc7
0cac
d731
9d56
5084
7150
310c
6b06
ea50
4bd7
59f5
c49a
34cc
6350
ba10
0bc6
1136
1068
4b19
bc9b
daa0
be50
500d
d4a2
243c
3533
01f2
114f
657e
4eb6
e650
0f99
098c
3650
b208
c72d
10f6
5012
9619
8b17
9af9
ab89
e7fe
efdf
ee66
9650
64b4
5c37
6303
adb6
6c57
9750
f424
40ff
61c3
c0f6
2062
0236
121c
e5ad
f463
00d5
7e14
be48
de7a
0218
94a4
24cb
722d
e588
992c
1e4e
fad7
b650
3c2d
2551
0baa
8d6b
e629
8139
b29d
281f
8f50
42ad
0257
7df7
6d39
010a
82fe
464b
b88f
438f
34e2
67b0
1078
3c32
e4ad
cf14
52ac
0d81
d990
34da
e95c
2386
d250
3c04
dae6
1850
50ef
d9da
17c3
1750
3cf5
3930
2202
9b95
508d
7ab9
0b81
786c
abce
d72a
2862
bd10
4bc7
76f7
6250
1b50
d07e
cb65
2a24
2bf1
8ac3
3c11
bdb9
6e03
b3a0
1f97
ce02
e909
106a
206c
38ae
fbf6
fd6b
3f38
b2ee
ff28
14c3
e150
7783
b777
9c7a
005f
0a7a
bfa0
a549
ec17
13e9
9c50
7a57
53b1
5850
4778
400c
5d67
650a
d827
3c6f
0b98
ddce
c750
9ea0
10fe
4004
79b4
2194
c9b0
bd21
0a97
3820
2068
2bf3
0111
d350
6d50
52c7
3c3b
45b3
7069
2549
d4f2
dc21
8549
73d4
947e
67bc
3733
3c67
0bb6
e547
99ed
28a2
3239
1347
a984
9a26
bea0
808a
6976
444e
e5bc
3c64
2868
5d0c
bfd1
176f
d7f4
3e08
c6a1
71d7
2cbe
2835
0bc3
3121
9346
aa8f
500b
88a0
1a50
4d50
0e6b
0170
36ea
1b9c
950c
1921
6962
3c9f
5893
4050
3cb7
2031
d325
9f7f
3303
d2df
7fac
3cbd
e586
1063
5ecd
c65f
9450
c481
3c44
2b54
a28a
6293
283f
0234
a13c
5fdf
5079
8b1a
1150
4141
6a57
69b9
690e
02a0
3c79
3c17
7b72
3b46
ec06
7b50
de6c
0bd1
69c2
0e49
6650
9ba0
03e0
360a
df50
44f6
6565
0e58
533d
34a8
6f5e
f0cd
b150
8914
1e95
bf9b
86bf
9fc5
5008
62bc
206d
10ab
34c8
d74d
75ab
e97e
c450
2bc6
020f
6a24
7160
0d42
acb7
3844
6d78
349a
7a78
acb6
742c
7273
2076
0932
995a
ef77
a6d2
505a
5be7
434e
6f78
e450
2808
1d7f
d754
0164
76cc
2805
0e69
e3ef
686b
a0e3
3cd6
3c91
eb50
74c5
cf87
b49b
3c68
d9a0
3350
2dff
3236
b5ab
10a9
ba21
504f
ce60
9522
4720
3234
0d6b
e3c7
f206
4861
e7f4
0bc1
5503
28b0
8e22
bda2
5cf4
677f
30a0
ba83
6bb2
b797
7470
791c
9b18
7569
c319
f450
3e50
3c4a
fe2d
1820
f02a
6473
2e50
1e50
0124
6d87
284f
50f1
d589
a6f4
64f0
015e
8204
9923
a7a4
1e97
d14f
cbe1
75f6
508e
4450
47e3
7b4a
8e31
00a7
bd70
e53b
4787
a5d9
c550
0bcb
0b25
b78e
3c71
280f
3c4d
3633
24b5
456f
0fb2
6175
5085
ce92
f9f1
01a6
6fd0
5086
7467
02b4
3f50
f406
80d9
2450
0b86
3c5d
c8e7
7350
10f5
0489
dd79
1450
2447
3c2f
a6a4
10e9
5082
08a3
3c0d
2849
a550
00f9
08a0
c204
0bdd
17db
0bbd
9ca0
9c7e
9412
c8d7
728d
0902
aa50
37bd
fcf0
6714
a650
d492
cbaf
c650
23a5
8b9e
781f
0c7a
dedf
53ad
2a50
201c
3cba
fceb
ca41
ad6f
e8ce
fdf4
713f
ff18
925c
2763
47ad
dc3a
af1e
e737
0fa0
13b3
3c23
c1d8
22d3
508b
558a
348d
0ec3
0bb5
d045
8635
da29
015a
f181
681f
d550
3c1e
f07d
5150
adeb
285d
265e
4a06
3130
ef50
7302
3497
5eac
0d8e
e750
8ccd
807a
2839
1073
16fe
282e
db70
8c67
ab8a
01eb
3c15
c6a2
8d50
d922
5183
f6c7
5fb7
4906
393c
de93
d7f2
9126
d4d0
477f
1571
97ac
8750
bdd8
b250
15c8
34cb
8fc2
c56b
9550
de50
736f
0120
34d0
2834
0bcc
f4bd
e5d0
3138
3939
50ff
15a7
d8cf
3487
39da
70cc
0423
3535
44a2
0bb7
269d
6950
e5f6
6fee
4a50
0c6a
a357
34e6
2842
2a06
2cf4
92b6
1ee6
507f
2d4b
a33e
3c31
dbe8
f7dd
be76
dc60
9e86
0227
6a06
fb50
01d1
bc50
23c9
2847
3a61
6f98
2215
cd50
fc67
2a1b
3313
38f7
16c3
7650
0479
bd4a
3639
d63e
0ba2
9150
e5a9
f2a5
3ca8
3ced
3c2b
2b15
2807
9b30
b850
3d14
9c0e
01f9
89d7
8933
2846
369c
9b85
ae0a
8fee
8350
79fc
c8f4
b196
2812
c1ae
fe27
aa7b
c270
17a3
3cac
2650
3c25
5356
0f50
5005
b88e
0729
5435
3cfd
e111
0beb
dec9
dc99
9c3e
175c
e51c
6f1d
c28d
1e20
3ccc
4e50
183d
7432
3d95
a5ae
e9a0
5078
0167
34d1
0787
28a0
5da0
b0c9
e269
505c
7450
0350
8a50
e43c
1d50
e350
f1fd
c2b7
27b0
c8a0
4299
7d2a
1650
d28d
0baf
e221
f002
d89b
4347
fb38
c91b
5f50
ec52
4ae8
6a5b
5662
5a16
d7f3
6af3
4da0
68b6
5113
840a
b84e
3c12
d37c
3c6d
d8e2
5002
5194
35eb
20f1
a022
3cfa
98d5
3070
3cd7
9c70
ccb4
2837
0bd2
f825
2848
e984
2cd0
2ab7
6d4b
3c93
3c51
3ca4
6a59
7990
0424
1116
34cf
0bcd
9af4
01a2
71da
9850
7c5d
ac7d
fb57
0950
e8ae
2041
1719
e802
34fb
ebac
282a
86ca
5a9e
4c0d
5650
ec7c
3c9a
dcd5
2150
ad50
b6b1
5c75
889d
0b82
281d
d05c
3c37
1618
34dd
dc18
799c
3c2c
6c36
6169
1f8e
33e6
8e50
f075
a450
6b03
defa
4e0f
99fe
01ad
74a0
6930
3cd0
3ca5
ffad
0ef6
16fd
fc74
22c7
e99b
b374
29a5
2395
473e
ec70
8ff5
223a
140c
c250
11b0
2c50
473b
e1b3
21fa
2350
3c03
8550
c531
a859
2baf
2816
6d65
e51b
1087
a874
3389
03e2
1550
201f
a473
508f
208e
b82b
be86
3184
818d
1358
34c6
6dc2
472a
3cda
0b9b
3c62
b6ba
560d
cc8e
af76
7468
f718
8113
a7f8
f066
34d9
a62c
6608
523d
e5ac
7bfd
1f50
4378
0206
ca66
7c51
5250
7b1e
dbc9
34e5
4470
0dc3
48fc
3cbb
9193
f523
1082
53f0
d150
b550
18be
2815
ac89
504b
e568
bd5e
f650
bcb2
2550
2521
2067
e79a
7275
9050
3163
91ab
809c
357d
ce7f
2854
815a
fc25
10eb
9a82
3c3e
3c9b
0d21
d7a0
0592
1350
40c3
283a
fd67
026e
ace4
3c02
d139
41e4
8b28
696d
89ac
fd50
dc09
2811
3c7f
0348
40d2
d82a
5903
2831
36a0
e757
3550
5389
3c08
d895
5bc7
3c7b
66ac
3ab8
d5b4
279b
d868
2250
5208
83ce
30b1
a2a7
a350
93c1
b350
0163
7770
5b70
f56f
fffe
67ec
cbf0
6068
283e
dcdf
dfd9
5372
72af
030f
3495
ae50
3eb5
d244
03df
ceac
7b69
283c
3832
af50
1f86
ff4f
6d38
7c0f
3c3f
415f
b450
8a02
3750
504d
7472
4993
349b
5a61
11a0
53c6
85d1
0bc4
570a
b050
76e5
1077
2dcb
3c63
b2ba
59cb
28dd
fca0
e95f
f412
685a
a250
3c26
dd50
2836
20d2
0bc7
b72c
2858
2878
d106
8150
8ce7
cb50
9322
282c
3b20
b3b1
a570
143b
3504
0e04
3c8a
fa42
8013
5123
f085
fc4f
8859
ff0a
612b
d372
4350
1a05
2841
7203
6b2a
3150
6623
fddc
1074
dca0
b886
9a50
17d8
eccc
5451
7574
5039
0e64
75ae
3483
6bd1
923a
3adb
e594
0be0
8050
6542
2827
106d
2004
d7f5
68de
6550
a648
1c50
287d
1007
fcf9
c350
501b
0bdf
0bed
0b17
3489
0110
348b
e6db
9381
6c6e
0829
1270
3838
4578
7a69
eea4
bab1
0231
3342
02e9
eba0
afa0
a0c1
cb11
3c47
3010
8ecc
6661
fc0c
20e7
3fe0
8450
a9e9
281b
1060
10f7
b81f
5a53
ad38
3abc
da3c
3c0f
747b
5706
3cd4
ec50
70f4
23b8
8df9
7403
fd6a
34e4
3ce2
a871
e47d
8428
10ae
3cf3
8a25
c2f6
2052
2110
70a2
db9d
fe50
8650
0114
6e20
38a0
3a50
6f9f
c950
90db
9e50
ca10
84ff
501d
fa0c
a542
871a
0e52
9a93
dd0a
5045
1314
987c
b29a
3f68
03d2
0461
9ef1
3cb1
5071
f19b
0ba1
4e5d
12e8
3cdb
2823
2876
aca4
0cd1
9fc7
10cf
5664
c820
f20e
2377
7989
14de
3cea
281a
fcca
3ce4
7a74
512e
da23
1a7b
0450
db50
5550
ab50
fbb3
3cdf
18ad
2844
b87f
10e4
ae35
e825
901b
a0a0
11d4
17c4
5047
6869
e0b7
2038
cd36
2254
3def
105e
ef06
e250
dbdb
8ce5
5034
04a0
dc69
dd36
0da3
3c8e
a2e2
4fea
10be
50f4
0985
3cae
104f
3cf6
0b9c
2c41
a562
8250
b06e
a750
5f8e
9f0f
4bb4
7427
b4d5
1e11
34c4
26e7
3a57
bf32
335c
10c2
3c8d
8f5a
7776
6218
c706
e7cb
c6bc
3a79
1089
213d
63b4
aee9
50fd
0162
0241
99a0
6e5b
6120
a534
c573
8713
7fde
3036
a50a
b865
34e1
3c61
6c08
e050
7db3
284d
746d
2825
6582
b0a1
ffdf
fa3a
3c69
e850
730d
5075
280d
3cf8
3cd1
ba7d
280b
3995
8d8b
34aa
7105
eefb
faa9
2089
7d6b
3c49
715e
11dc
51db
b950
a2a0
4ae0
625b
46fa
0bd9
0c0a
8950
d23d
0161
6c72
429f
ee50
f66f
e993
3505
0287
ee38
e9c2
bfcd
54bf
5037
3c05
f64b
8ce6
a4a0
9b39
34e3
2820
3920
0190
1ca7
e9eb
b91f
34c1
6150
57a0
5072
2b35
63c9
0286
7a0c
adb7
ff3c
2826
9f50
02d9
2079
0148
d6a5
fc6b
d48e
5593
8c66
f5c6
107d
12c6
284c
286c
bc8b
45e2
a070
d65e
63cc
ad2f
1038
3c21
a123
4ba0
9070
938c
3cad
3c1a
2647
4c50
f070
7a50
8296
7093
a52e
6f93
106f
ae70
0b4b
2802
34ad
79ef
6e3b
7202
6a50
7bba
0927
3c5a
1f2c
23a0
7b38
3c52
900f
3c98
ff11
0b8c
150b
39fe
86fb
286a
c6a3
3c46
f5fa
3cc6
0c50
735e
10f0
12de
f750
284e
14d8
ac25
6970
02ae
ba50
0770
e62b
b81c
7123
3cd9
1f3a
1b6a
0570
e99a
6e7c
1d7b
58d4
103e
9f04
6e70
7eb3
0288
2855
6b16
2879
9c1e
2750
0122
52bc
5013
3cc1
282d
91a0
0ba5
5e5a
190e
8c50
5054
8da0
2383
301e
2818
0293
3338
6548
38cf
348e
3831
3cc5
6c50
f9a0
2339
3ce6
5950
507a
6355
506b
8e16
5899
3cb6
3c5b
e5aa
3c24
3c4f
f661
ea7f
50f7
02e6
0318
89a0
3cf1
6850
281c
2086
28aa
3829
78b5
9312
57c1
34c7
3cf0
6fc7
2859
b353
5781
1bc5
e322
1093
c912
3c5e
c6cb
6be2
3cd8
3c39
5052
4914
2002
c7cc
fa62
0750
3c82
3c6e
5153
7e50
50fe
e006
25eb
3ccd
166a
18a0
22d5
70a0
8dc9
3836
2d72
7d52
9ea2
5d79
3cd2
3c42
9d03
3c8c
38bb
cc74
df28
4518
3c2a
20e4
5076
200a
5771
107c
0d23
0bd5
10b7
7970
2817
5115
310a
e6bc
cd70
fe75
58fa
3e9f
3044
5949
f1ca
f793
1eb5
3cfe
5064
048d
3830
b750
6e2e
3c9e
0cbf
c371
2809
aa6d
26e6
f8d6
6972
dbd3
4939
2595
3c9d
7614
53b0
7165
207d
3492
9844
69a0
a460
3cd3
3c35
e234
8fba
0fe0
1da4
da0b
3c29
bf5e
287a
9350
0325
34b7
011c
3ce8
2873
bdc7
6750
c1f5
34f8
3c75
580a
5a50
3cca
3c99
8e0a
a3d6
503e
c032
1c69
93ce
4b50
34f0
0bec
b52c
6f74
5059
73e2
fa1c
b41e
3c89
eee6
d0a0
3c96
8fbe
0f60
2f35
ea51
aebc
7075
286b
3b38
d897
5022
a4a2
5c50
0bbb
acaf
7920
8e6a
2113
6235
c3b5
fafa
a324
b726
2467
49f8
3c6b
ae6a
3ce1
6a5a
f250
b3fd
3cdd
9170
2d50
d9e8
e5f7
ae24
4996
7331
287f
2f50
a470
511d
eb0e
3c0e
3496
af3d
3a91
19ec
3f63
588d
0b9f
3cc3
3c95
46df
7ca0
094f
7acd
505e
7550
b729
2853
fce8
b309
0ee2
3ea0
1860
107b
3c59
285f
c158
c8de
eedf
0747
3c43
cf6a
34bb
eac6
501c
7795
349f
9324
bd28
6cae
2ac6
79a0
0e50
bd13
2206
0282
349e
26c4
ff65
10af
7044
45f8
5b7e
caa0
b7d3
3c06
731c
ff44
3cb4
e842
fe0a
3ce0
95c8
c9d3
5161
2821
2b50
4b44
e01d
1bf2
77c3
1468
ff7f
3be9
3c65
6cda
d1a0
2060
0b8a
f150
ba3a
3d50
3cb3
c91f
65d6
c02b
e391
6f12
96cc
8507
39d9
6da0
20f2
2865
1cfe
7d50
2003
4459
c38e
89bd
fb7a
10d8
0ba8
d347
da82
2822
500e
9af3
67d5
cf96
011d
119a
5026
6ed1
1002
0dc1
3cdc
f4dd
5773
5068
3caf
575b
0938
2b81
a462
b191
8ba0
7c29
b520
de63
95cc
618d
f950
9ccd
34ac
7144
7475
1ecc
13ce
2843
7f50
cd0a
0da1
3039
ad57
2093
0d64
35e0
209c
4f66
2390
ce70
504e
2059
492e
e458
f4a3
34f9
1023
01ab
e7a0
5718
024b
34d5
31dc
506e
0130
043a
613c
93b6
0ba3
e74f
0132
3cef
c023
be64
c028
3e38
6a0b
3a31
ea0a
ae07
0869
3c6c
caaf
d509
269c
284b
1638
3cce
f6a0
b633
60fc
5995
c70e
284a
a593
f350
411b
70cb
040a
3c94
3c48
4d08
9c6a
e917
e045
3c1d
6843
0bcf
3c5f
3c4c
1690
9f62
dbca
0127
c1f3
3498
d644
4150
50f0
6d60
6d92
502a
3c22
2871
0bea
b508
7269
030b
1005
ce18
34ea
287b
5021
796b
a5cb
3c7e
286f
011b
34d6
a7a0
accf
e8b1
2056
456a
012b
0165
125e
f89f
3909
cf70
b1b4
6566
0bfb
07f1
01a4
13f6
db6a
dc6f
0b99
5a85
7878
910b
7ad7
4f62
3802
3c85
0e6d
d5ad
3c45
3cf9
fc0d
22e7
cde6
a934
90a0
2813
ffed
fff2
2e63
69d8
6ba8
6414
71b8
3cf2
7f2a
6370
ad10
af86
0ce0
0978
b81e
3c90
3c3a
36ce
96de
3c78
1034
2ecc
286e
4fc5
bda0
5c69
2866
fb0c
1039
ce84
0278
96a0
4250
9774
635f
3079
3c72
3cc9
20ee
22a0
e970
5048
307f
b02b
e2a5
3c27
b47d
e57e
010f
a5c2
27cb
ff52
0b70
5159
beb8
ca1c
9b2f
19a0
925a
4879
ac68
3ca3
d6fe
dc0c
5c03
9345
c9fd
ff93
4d6f
44a9
050a
e19e
a347
3c7c
4fa0
7250
fd2b
3ce5
ff5a
38ed
b060
2e27
0370
081d
5c51
f0ac
3c0b
393a
e8b8
3ca7
bf9d
ff03
2829
f677
86a0
7797
ad1e
bc67
c661
c2a4
16c8
d3a0
34ec
a8a0
8f6a
bc46
930e
ff12
aff4
9628
9d57
5bc2
34d3
5c6d
016f
f2b3
cbe7
e56d
60ab
632d
34e8
11ff
0ba6
3ca1
3926
0455
5d16
f8f3
1a1a
2830
3057
e7e6
c37b
c357
b03d
6fa0
7f3f
2fdc
3520
e22e
02b9
152b
c397
3c14
e612
bc88
64ab
f306
57e2
50fb
34a1
3c83
20f7
3ca9
f857
3cb2
1028
7b14
db25
056e
3cfc
e370
e9b0
aa9f
7de1
0bca
de61
3cc2
34bd
ffc8
f503
6f46
57b0
e23d
6005
2856
119b
3494
41f6
2e58
14ea
4648
de4b
34dc
285a
cc4c
1798
d9df
d2bc
851e
7253
1ae3
5573
8e8b
55b0
b3c7
46b0
f2f0
348a
3cbe
5772
0b95
35d4
d555
d986
b010
d1f0
d49f
2875
3d6b
02bc
ff5e
24ac
c721
5073
b4c3
c0aa
3ca2
b827
8fe2
e2b3
b662
193a
d814
412f
4f4b
99b9
0e99
dda2
aaa0
7572
013e
9c10
f60a
4357
14fd
502d
a0a3
7074
3ffb
9c0d
e587
9acb
3c3d
1fc8
93f6
4020
353d
dfa0
f4a0
baa2
0590
9cb9
e6bf
505b
fa70
3e59
34a4
3c5c
34c2
ff05
1de2
5036
3c81
0b9a
cfa0
6748
8839
6166
133c
3c10
b89e
281e
3c87
639e
3c38
ff2b
3131
3c66
9ad7
041c
15a1
02b0
34a7
e11b
20d3
ca70
6959
1ee5
b03a
34a5
200e
af10
aff3
7ddb
34d4
6f62
61d3
7d2b
a20f
b1cb
d289
3803
9304
6d0d
6749
1046
d64c
eaee
6b17
ed2d
0f2e
aad6
b619
3aa0
3cde
81bc
ca84
5032
bf6b
eaa0
aea0
cad3
1584
f6b8
189a
a876
20fe
5742
6b68
011e
b864
178a
0bd3
b1d1
6f6a
fffa
fa0a
56a0
34b9
ad0c
4b20
2852
c6b2
c2d0
15a0
6d6d
47f4
4bc4
0bac
3cbf
0708
51bd
5030
b41a
34ab
86ec
fcdc
3317
282f
ac74
9edc
8202
1020
4593
19b0
ffd8
3490
10cd
c50d
e1ba
1808
10cc
77ca
e522
3499
3c84
a3a0
34f6
34ee
50f2
dd6c
5cd4
5038
e9d6
2832
e6a7
1c2f
eda0
506a
b418
0128
04d2
26bf
cf1e
61a4
cb70
e0b0
3c28
2857
61a0
17f6
1c57
e92c
f575
43e0
f7a0
ff60
1721
aba0
4514
29f5
dc61
9f69
ee58
1066
1209
03db
c2c2
71a0
dadd
8a28
6f82
ff22
3ceb
ffae
8670
b993
adb4
1067
c0a0
5028
3486
48c2
01e3
3c20
bfb2
0226
bf9f
23e3
8454
6a41
cda0
0b8d
354e
2860
a2f8
34b3
f3af
77dc
3cab
2828
2951
2e66
290d
3481
d194
3334
eb58
50f9
ce37
34fd
cf89
ab93
90bc
fbd3
208a
4dc1
3c88
f679
2075
3cec
1897
0fe5
13ac
42a0
616f
9c16
0bdc
013a
34df
1fc9
21f5
501e
dabc
29ac
e0a0
5f2c
c973
0d83
18f0
e3ea
c7a0
106b
2470
502c
273b
34fe
9fa0
656c
f213
138a
d945
1476
fba0
1ed5
6167
0468
283b
3739
fe45
08e7
3c6a
1748
5744
a7ce
d9ca
f2f6
302e
0289
0be3
62c8
34fc
7122
b639
2047
8e14
42af
5db8
5060
3cc8
c6a9
20d7
f2f2
dd2f
2570
e28a
fe88
a7ec
3c58
19a3
a437
3cbc
0d02
4592
32f2
0192
3c1b
5020
2576
504a
ff9a
1a85
6acc
e5f5
505d
b2ac
cbf2
34e9
d8a9
88b4
d4a0
847a
3008
a3cb
d798
3732
b076
94fb
c731
d339
03e3
34a9
34af
e79f
6352
a9a0
e070
6bc1
65a0
11e9
091c
717b
e559
8aa0
3af6
20da
e52f
03a0
e6a0
93b0
01f8
3ccb
20d5
d105
107a
3c76
71b9
a86f
15dc
20ca
3c2e
34e7
5033
bd67
fb66
ffc6
1fa0
b8fd
6821
bc53
a5a0
b770
fea0
5042
cd18
01ea
706f
f065
8ac9
34a3
6793
a386
b075
b4cc
1d54
2043
3c19
818a
d376
96ad
e5d7
1ea0
8517
f315
e8dd
e95d
bf26
51a0
549e
f9e3
7865
e789
92a0
d5ba
abfc
40fc
5fbe
23f9
ff68
2f23
4820
20ce
9aae
03da
51d9
8aa9
8ea6
0845
8fa0
30b6
6d0b
6f6c
0b93
88f9
df87
10fb
0b47
04fa
3c36
3ca6
0be5
07e8
6965
9082
a3cd
bf58
10ea
ebf7
39f1
0153
081f
315c
bca7
74e6
c7b9
6865
1886
3c8b
7175
e8a0
716b
19db
ed5e
44bc
eeb8
8d49
685c
c9a0
cf5c
3d9a
0263
3cc4
0bce
0219
3c16
26a0
2861
6a93
a2b7
82a0
5027
503a
7c62
04b5
f1fa
64a0
3edb
2833
0be9
1ca0
5d9e
46d9
522c
84a0
2523
859b
348c
3cff
2877
f19c
5fa0
109f
7ea0
10ac
3cb5
78b7
3e04
b249
042c
8ca0
105c
8abe
07a0
7d70
73a0
83d6
98a0
0be6
6845
83e5
1e1b
01bd
dfc3
e526
c6a7
1051
5a9a
5035
4608
3e75
4959
b7de
6e63
020a
5058
b09a
3ac3
2869
7820
5031
e732
ed85
02b2
ffac
1356
0bf6
90e6
20c8
6dfb
025b
c6a4
7a3e
a0e5
593b
4966
84e2
013d
3cfb
63a0
f345
e7f7
34ff
c184
c8f5
120e
fd87
eca0
4c16
0bba
d6a0
1c20
10e1
0ba7
ff56
9660
4436
80d7
16b2
506d
be1e
12a0
ffb6
d623
dda0
9031
349c
2ccb
3c30
10c8
20f0
91ca
e290
4d20
8dc7
2bb6
145c
2abd
82d3
9005
18bf
ff37
10b5
7e08
88f3
8ea5
287e
ff4a
20ff
ebaa
6b9f
208f
b3ab
d3ad
1c65
7149
d170
5023
ffd1
10da
503c
e541
90c3
598d
20b2
52a0
1b23
8d21
2039
349d
ff1b
aa58
c7de
ada0
0e70
019c
8617
68a0
20ea
0146
93b2
5357
277c
bd93
4f28
5ba0
1da0
34b1
3482
1ba0
01e2
f0c8
01e4
018d
34f5
4ea0
d7f7
f04a
422e
cd22
fd35
34be
ff0c
56b4
6cb2
a0cd
2c46
4f41
ff29
7fb8
6571
bd58
5a1e
b315
05eb
543a
a01e
0b97
305b
bee5
8b30
0b27
9af0
706b
9b86
faad
7438
220a
c117
ca06
0269
5a32
645f
8433
9b93
24e6
d434
5eb7
04d4
5051
4838
0b8b
626f
3e79
370d
01c8
ff1f
507b
0ba4
2a0b
63cb
043d
e4a0
d05f
503b
a528
94a0
dc3b
3735
8748
3c3c
0b06
7620
dba0
8fa2
55f7
a98b
ffdd
290a
3dcb
82fb
4153
5bc6
d710
0d93
3b95
ffd4
ff5c
7fc1
503f
4784
5554
b93b
2678
20c6
48b8
49f1
0186
cca0
dba1
740d
fd53
9c93
8f82
8c70
c070
104d
7fef
20fb
eec7
21cd
1791
e582
b567
aee0
d012
5029
53fb
61e5
4c76
3393
c4c6
446e
5017
31a0
646d
50f3
b7a0
796e
8a8a
c1a0
43b5
abe8
9570
5062
7d87
6fc3
51c4
209f
97f0
0368
286d
20d0
c3a0
e91d
40fb
ff08
ff8f
3762
67ce
3ccf
bf45
ff7a
4f89
a4f1
c705
0470
f9e0
3361
2786
03b6
5056
c244
0356
ea2b
f3ff
7eb5
01c7
ff07
ff0d
ff47
eadb
6477
d3e7
e0b4
a8f8
01ca
34bf
2ea0
ab9c
25a3
2e32
424c
5617
6508
8270
6818
7cbd
93a0
104a
20f3
0b89
ebc4
34b6
868f
7835
3274
446b
5b46
ff31
43b2
5770
70d0
ffef
9cd7
8629
8c04
f5fd
1226
1836
5aa0
2559
d51a
1b9a
9b4f
270e
0203
b69f
c893
c77a
c238
9983
0764
b808
2ed4
50f5
4646
72ff
7270
20cf
858d
26c8
ff20
9507
0451
35a0
f395
6f5f
c0e1
7de2
d06f
0898
34b4
a6ea
0f92
95d7
f0a4
2cc8
e0aa
ce42
2019
025c
7c35
620e
34fa
ff1c
54e9
506c
0bae
0195
6832
1057
8818
422a
cbe0
2264
a0ae
0b9e
feb5
ffa1
110a
ab70
4345
b270
0119
e572
eb6c
38fc
f8a0
b291
fb68
25cd
69c5
5694
0db2
34f1
ff10
cae1
2027
b9a4
5a10
5f7f
25a0
a7fc
ff48
c5da
6020
db33
7136
21f6
ba81
e22f
0704
cde3
207b
ffe1
7935
f012
8fc6
535a
3237
207a
ca02
ff81
4f09
50f6
c80d
ffa6
ffca
9da0
9089
374e
bfd2
3aee
6b70
5077
451c
3585
0266
14e1
ff69
657c
3d51
3870
426c
025e
03c2
ffe8
10fd
15ce
dd1e
bc5d
03de
2f70
42e6
501a
fa1b
01e8
33a0
178b
9d84
f682
cea0
3d13
3a9e
423f
e53d
7332
cd4f
0193
ff83
0be4
e5db
2d61
45c5
3204
01a9
ffb2
2033
4568
1f12
34b0
b644
a6e1
f4e5
ddf9
20e0
c09a
b0a0
cae2
fd52
016e
ff2d
6c41
5aa6
b9a0
34e0
c149
f0c6
2b37
ff99
ff14
df0e
6770
40a0
0129
0548
2204
304e
1dc8
57b7
ffd6
c1b9
597f
6ca0
ff8c
32d6
5025
386a
ffe4
afaa
a575
01f1
02a4
057a
8fd9
6c74
7f11
510a
42b8
200c
0123
ff61
ba22
32b2
57c6
f574
0eac
6961
76b0
fdfa
e566
8aad
ffd7
ff64
7515
ff3d
4830
c4a0
4223
10f4
3536
ff3b
05d3
b153
4d70
1017
6db0
ffc5
b7b7
ff17
5139
cba0
0141
ff2c
a82d
6a2e
3337
012c
02d4
ff77
202a
718f
3b57
ffb8
506f
9a83
ff51
3135
2a70
c09e
ffe6
502e
01c3
9cd1
57f0
f6f2
0106
89d8
5015
9bca
ffe2
f8c3
4ceb
20f5
311b
34c5
ff66
aca8
38e4
34c3
ff46
6b15
9bf8
ff63
e574
c470
5074
3485
e3bc
440b
34f3
ff26
ffaa
51cf
deea
d842
6992
f970
e0f3
dd69
013f
626c
e52b
ff67
50fa
a164
0191
0406
d391
e455
20cc
8fa1
bfc3
ffe3
9fdc
ff04
e670
10ca
abf5
bdf0
ff36
fb5e
9d5a
012d
0da0
ffb1
fff0
a66a
87b2
dea0
5016
ff78
ff1d
c59a
caab
021f
ff43
0b96
5065
1c0e
ff0e
ff62
0ca0
ff09
1071
010d
ffc2
5057
6767
0268
98ac
7703
100d
d219
8bf5
ffde
a825
0ea0
d075
0285
0bdb
0b9d
ff58
beb4
f869
fff3
8f0a
bc43
8567
1905
10d1
ef86
2370
9d14
4d3c
0139
3134
2c5d
9aa0
02e7
ffb9
c911
a5fd
8b2d
6fcd
ff9f
255a
1e8e
03ae
0487
61ce
ea5d
646f
0bab
a1a0
c014
2d6e
fbc7
02bd
ffd5
ff30
ff4d
8f35
b2a0
e5ae
a40e
9325
a761
44a0
9763
ac78
b307
3787
ff90
65d0
02b1
4ca0
45a0
8ea0
ff1e
61ff
fad4
5470
42bc
2864
c32f
ff41
ff7b
ff76
ff8a
9fb4
7aa0
fff7
1e0a
384a
8f74
443a
ff27
6ba0
180f
dd39
ff6b
9c14
cc34
0182
34ae
f7c5
3835
270a
fb3c
956d
7906
e6f8
ff21
ffe5
ffe9
ff39
ff19
2aa0
b599
01ee
ff9e
3aaf
536f
a2a6
6230
0264
ff8b
8841
ffb3
cd78
4dcd
e3de
d067
0143
d6de
c4de
7ba0
6b1e
63cf
312e
20b5
0db6
9ccf
3997
8f24
64be
ffd3
2057
fe04
01c9
34b2
6fa2
ff25
ffce
5245
34de
f4e3
7d0b
e793
d0de
34f4
d148
10b1
1de7
1ff8
650d
7bc4
ff86
ffc4
0e06
c389
d5b7
ff15
cb02
02e2
fff9
2c65
5f6e
0131
e824
ffe0
dd0f
5e4d
f6cf
11cf
d359
8b70
34bc
7fec
84eb
ffab
c636
20fa
ca19
ff7d
ff55
9670
6b64
d8e5
7a6f
13d3
17e9
62a0
2da0
ed70
63ce
c7f0
ff74
ffb0
db07
8a62
0839
ffa8
860e
0c70
20b1
7796
b6d9
e557
1205
c3bf
c726
1970
08c7
ff6d
7c70
20e2
201a
2c6e
505f
e387
b477
2b67
ff9d
c0fa
2007
03d7
ba33
a21a
ce3c
ffc7
4c85
ff2f
acae
9f11
e3a0
cd90
4e21
d064
c5c1
2f7b
4e6f
ff98
4116
210c
59a0
9970
015f
34a2
70b8
64c2
5cdc
2270
b0e8
209e
afa7
ff45
b14c
a276
c0c2
63ad
ffc3
d1e4
7121
7b51
d5a0
7060
20f4
3868
018b
b58f
1a8d
6a02
0258
fffd
ef1b
b4d4
9216
ffa2
b2b3
1e91
ff71
ffa3
ff13
afeb
d46f
fdb6
ff73
1f98
3a70
f0dd
b4b0
7d7b
66a0
f0be
4ad0
67a0
cc6d
ffa7
722e
03d9
fff8
fbea
b0cd
059a
ff6f
0291
ffb5
5670
9f70
2389
024d
8292
2e21
e3ad
3648
81a0
7474
c27b
75a0
2085
792a
ff72
efb4
0384
2090
afab
b930
ffec
ff9c
f37a
bf24
bfee
fc13
6270
9b7b
f9d8
108e
018e
ff02
ff42
10c5
b470
09a0
d551
7d43
8745
08c1
ffd9
fff4
daec
65b6
7473
0bc2
776d
c6f5
ffe7
f2dc
6e69
cdce
77c5
ffbe
c9d8
3dd3
2a1d
fb64
ff5b
b59f
0be2
35ac
102f
a2c1
6b95
76ca
42dc
45bd
6d55
01b2
d428
4305
30d6
fffc
a13b
29de
ff57
c1b1
c4bd
bca0
4877
9807
34a6
9309
2d28
b7aa
01af
086b
0be1
32ac
2012
ff8d
46cc
16ef
1ed0
b248
0189
2670
721f
46a0
2c5e
7870
95a0
21fc
9c67
7943
8b69
2c5f
11e5
3fbb
637a
70be
874c
ffa5
fff5
10ba
d7e9
c7c3
0166
ffee
ff6c
ffcb
ff6a
3ba0
3a9b
bd73
dbbe
ff1a
0bd7
b1a0
74bf
20c9
0177
71e8
ff24
c21f
fdc3
bf57
ffea
ff16
8828
2191
22e1
628b
76a0
1870
0179
ac70
03e4
0c5a
fe22
ff35
2568
8870
5066
26f4
4243
025f
7170
ff5d
a5c1
3dcd
5b35
a319
054d
ffb7
45af
b5a0
1705
1112
752d
e1a0
fc83
e77c
f5a0
98f1
190a
14ad
ff38
c321
5067
60a0
3484
efa0
2096
4449
ff91
dc32
baa0
d7f8
f054
0856
285e
8f9a
bcf7
410a
55a0
c035
0173
ff85
3de7
f0c7
48e5
4d58
1166
9878
335e
8a31
d4fa
cd0f
d605
7849
9355
10e8
ba70
e662
1920
ebb3
ff89
ffc9
c498
fdef
f07f
9f4a
da7d
203c
ffcf
27a0
95b8
ff97
6b96
f56e
926f
2565
ff7c
28b9
ea5c
49e2
a0af
2989
7d8e
f889
865f
e7d2
7361
fc2c
ffcc
ff79
4a43
076c
d8a0
5270
a310
97a0
2017
833e
ffbc
38c9
f08f
0125
6aee
57d4
3815
8ac2
8d96
ffba
9d70
686d
f7f1
34ba
ff82
9c74
b678
6d1c
cf4a
da22
8787
0126
01c2
ff4e
ffa4
189c
c2ba
207c
c697
c2a5
0284
10b9
ff94
8607
57ff
cb51
cf53
63ff
d4be
3ef5
01b6
a630
9668
6a6f
fa77
03dc
12a6
ff23
cc4f
83e8
b7e8
c2f0
3513
013b
ffbb
3804
0f5f
2e0b
e7c5
4c4c
1570
1096
2f68
dcb9
86a6
fdec
1d52
01ae
ff9b
11ca
686a
201d
c017
aac3
9fc6
8be0
ea1c
8734
03e5
ff95
20b7
2f8a
3a72
0b42
4094
350f
9777
7fa0
c3d9
3d6d
80a0
019f
ea70
d042
ff88
6190
7f0a
eb12
e208
209a
1cfc
a1ed
3da2
7067
f3a0
f098
17b5
8d32
ccb6
0214
150d
e421
0757
2c70
59e7
ea0b
20dd
bcde
a2b3
fb20
5e93
6408
0ff5
e8b6
7685
f18e
7a93
ffaf
ff3a
5145
a174
f00d
f85f
fa34
7570
6261
ffa9
95c6
1081
20f9
78a0
10a4
5783
cf0a
567e
2ae5
44cd
10b3
b5a7
0539
9c57
c27a
101a
733a
2bb4
1b2c
34b5
21a0
9bd8
977f
4ee0
207f
6a6c
9df0
1ae1
5422
e870
bfcb
115e
17ba
321d
c26a
0528
ff4b
c4d4
2034
5db5
01b8
0b92
0f5e
cadd
eea0
0ba9
08fc
302a
9095
ffda
6836
4b1e
0cf8
6a71
bff2
c739
e17f
183e
2025
8e61
54c7
5ea0
7da0
c4ca
0889
719f
565e
c870
100e
68ca
02a7
ff6e
285c
b135
7f90
e9ff
c1d9
4aa0
3271
c57a
4f67
5565
fffb
20dc
6411
f0b7
e226
4d79
7006
0113
4f49
49bd
4997
857f
6fcc
ff5f
9e53
425e
8dda
3b99
023d
ff7e
83a0
1b70
2111
7cde
db23
abac
36b6
d2b8
8514
5ec8
ff8e
694f
01a8
9370
d4b6
f06b
0199
2c51
3f1a
a170
4b46
f05e
4b3d
a46e
0c37
daf8
e16d
5482
01ef
0183
12a2
10dd
13a0
2112
a86e
e643
85a0
b227
012f
4dbe
6876
e593
fdf5
7158
7f70
2018
6bf6
37c5
538b
014a
04f3
e199
7dea
109e
20ac
0159
c4b8
4535
b6bf
cc7d
20e9
d890
fc2b
ef5c
a47f
37a0
20c7
e534
9861
dce9
930d
7139
8a7b
d36f
24d9
f4a5
2c8b
203f
f0f4
698f
bec3
efed
4a70
1e7f
0207
e867
f01f
b01d
88fd
87bd
01b5
ac10
9803
dc6a
d929
bfd6
ffeb
b01b
1aa0
a2e0
0903
ffdb
3b7a
ecae
1e70
444d
9dc5
e39a
e21f
6706
05e8
205f
59d2
3da0
9ed4
2023
45f6
2b79
f13e
374b
0412
701c
b0f5
3ea7
036f
28f6
baba
95e7
5003
ff84
2c7d
eb93
54a0
b4ff
b6c2
6263
5d33
f3ce
8956
f17a
3dd5
356e
25cc
0171
6efb
41a0
e2dc
e071
a2a3
9770
f573
11d0
cb1e
7c39
c7dd
a45d
20af
a543
f041
0121
01cd
c6d0
8fda
26ea
b2f6
a04e
980e
991e
5863
9cfe
9635
34f7
ff2a
dcdc
d477
a86d
20a8
08a9
20d1
deeb
bd6b
9352
25b4
0eec
4460
e6bd
5b93
b0ea
6ac7
db21
2fa0
2037
0d63
a5ad
57bf
201b
8086
1aa7
0323
118d
25cb
5317
c6a5
6af0
fc45
7fd0
8370
a2a1
9a70
a9a6
c859
22e3
6ec6
b0bd
b642
3f4a
6e89
2685
385d
8fe5
dfeb
df7d
92d3
c342
6efc
994b
f09e
f0ae
4e68
0198
5f1d
1a4f
89a1
6f06
0be7
5d32
6243
2094
6084
0112
4b5b
0413
6ea0
2a68
17dc
1ea3
cea2
ca4b
ea5b
8be1
3934
f222
01da
38fa
cf39
aa4c
4ae5
8a1f
2770
bfb0
2fda
5e59
3a66
3807
1cd8
40ac
01d9
017e
b7c9
01ec
d371
d970
49ea
515e
ce0a
45a6
1147
10bc
7454
e2ba
358f
e16b
312a
2717
8a6e
5246
8557
e5c1
bf2f
b670
fb77
108b
202b
5231
0565
5af8
9360
20b6
10d4
1ae7
6989
012e
df70
5170
7b10
01f4
d4df
b9fc
96d8
c14c
48c6
bd4f
0135
0410
81b5
0dca
21df
236f
657d
f411
8770
872c
125c
53dd
d5c3
0277
ebef
a270
5544
76db
0dd3
5293
0260
a84f
8a70
2b93
6deb
87a0
f4a8
f865
ba65
10b4
6373
e5ba
6d73
12a4
0152
6651
e95e
d92b
02e8
dcbb
2ce5
b2d4
df02
5c64
9e27
0bbf
a442
5ca0
32f1
449b
38e6
7de8
c045
98d3
f0ff
7377
72a0
6348
7669
747a
a574
a37d
7226
29a0
694c
9131
174f
6e31
0178
0147
bf70
629a
67b6
9b1c
0e05
01e7
dcdb
3029
ab36
045f
866e
a875
9be2
102c
3072
2c6b
0408
637d
b3d8
66ad
4c38
259d
a14d
1062
24a0
4770
0b16
7873
1032
fafb
4a10
43ab
6d20
4d46
4548
173f
5a3a
f025
49aa
e78a
6803
18a6
ca4e
be70
80d5
7045
d3a2
b590
daf5
e1fd
652a
4170
80be
577b
5993
e519
0273
10c1
cd7b
3b8b
74fb
b5e5
d914
20e5
3f1b
6e28
8c65
b216
65f0
10b6
106c
b5cf
b5a4
1eea
dff1
14a0
5f39
7a0a
9574
7b04
2013
6b63
2078
3048
01e6
9409
5f9f
f504
7233
12ef
4633
041d
664a
35cc
2f58
f89c
aacc
01d0
01fb
3270
2029
a6d3
20b4
6aa0
5862
5d12
cacb
1f9d
1370
1030
2448
8210
1202
6131
d2ac
8c0c
dc9e
c372
a3d5
a7ed
2311
691f
3570
731b
2606
c170
2170
483e
e59f
60e2
effa
5af0
04c2
76b9
bd31
af4b
f1a0
53e3
2e70
fe1f
be24
5a60
af70
2099
10fc
62f9
db3e
01fc
1079
01e5
5f02
01fa
0175
96d1
1059
45e6
5730
2906
2008
6e2d
20d6
e5cc
1af8
def0
8fc4
a63b
e5dd
681c
c06a
1e87
b31a
b845
b170
6b0a
be1a
d718
dc98
017a
01ce
01f0
6103
fa55
b370
fe18
b542
98e6
1064
57ca
2058
d7f6
c344
6943
faa0
2953
02be
021b
2009
6e97
9fe2
f572
a525
dc5c
9c9e
5c2b
4a38
c278
5cdf
105a
837b
8e70
f087
b3fc
018a
5698
0993
a752
01a5
f0e2
f05f
77a0
e589
20c4
7d12
027b
10ed
5a4d
7b83
d4f4
fdf1
0187
04ad
20e1
bc85
d5bc
0b1f
1d0b
dce8
383f
e1df
20c1
3a05
14da
90fc
0297
e170
f153
3a0a
6265
01c4
02d8
3be1
6070
1505
1e57
0136
2686
72fa
5970
fe95
6472
5220
0d61
2414
01d7
9b70
20c2
f33f
d2be
7d46
204b
2036
9e15
2514
20d4
63d0
8476
77e9
38c8
88ee
b957
0ee1
b229
f749
22c6
30e0
bf33
05b2
5a71
901f
8b22
992b
b72b
05a4
4381
cc14
2c30
ad7c
0265
0524
2b70
386c
c76c
010c
013c
10dc
6eee
cb67
a670
f086
ab39
38c7
364c
5f11
0233
20b8
5c70
5a37
225f
57d1
cb8b
6855
76e1
8c57
24fb
01e1
5974
6af7
88f4
7893
77bc
c23d
7d1c
de5e
1493
20df
e56b
1be7
20c5
02dc
0411
10bb
1052
9738
383d
3fa0
207e
f068
c24f
01b3
38e7
38ab
a57d
01c5
7f1a
8a4a
a2a5
cb35
dc45
397e
52ed
fe05
011a
7f4d
2042
f88b
8d41
6a6e
ad22
206b
7098
6d34
c920
4af5
5e31
02ac
bfb4
d1c3
e770
6e78
466a
b835
6633
c202
28e7
f192
32e8
726c
0154
bcb3
f0de
c718
1fa5
20b0
22c4
f007
10d0
74b4
0b94
f0d5
f0b9
17eb
0da4
d5bb
2349
3823
510b
d7f9
708c
2e3a
dc0a
f072
ef69
ceab
0245
038c
e55c
d270
e054
10f3
0518
e551
92b4
202c
4541
1f5a
20f8
3d0b
950d
14b5
1f70
103d
6541
02ab
e5e4
ea7a
f7af
80b8
491c
b2fe
668e
bc28
7fd4
6d63
f02f
7aa4
0863
3b28
4348
1069
5cff
2f98
9270
4923
5320
1393
024e
e336
95b2
a0e4
e41a
0249
7167
f107
6e55
0235
4c90
4579
c6a8
a6ac
c7dc
59ba
a54d
2266
e5ed
d0b3
03d6
a613
ecee
beef
6467
0f3d
ba0a
0f42
5552
cc83
09fa
b5b8
4d09
896e
017b
6819
258a
e573
9e5c
b4c7
014d
022c
1626
42eb
cbd6
09a5
6464
3918
01d4
02e0
b406
12ec
3839
ec08
d09c
99cc
93c3
b004
6672
bc70
3fc4
d7ac
d0f3
e5ff
c236
1e0e
4599
0923
36c2
10ef
20c3
5e1f
b79d
18bc
7197
d2bd
43c3
f0df
c7b0
2011
d7a7
dd8a
e5b7
0f43
5c30
af7e
4cb2
579f
5e70
38ee
8f0f
3bd7
fa46
b35e
1011
8170
ee62
591b
d734
863c
d853
754c
0403
a0f8
04ce
c970
f5dc
3af7
273f
d6b3
20e3
e596
bab9
95bf
03d8
11c7
8faf
fc70
4552
e09f
608f
99ca
a8c6
c59c
ab37
2010
fec3
02e5
026a
3158
7fb7
4625
3170
b17a
20db
6966
3826
8470
1094
e53e
e52e
0174
9c75
20d8
f4ad
0e0b
a1fd
c16a
71c6
9f17
c20a
4e09
17f8
0168
0275
023b
6f5b
20e6
4489
02a3
f670
9470
db06
1ec6
ae14
c570
10a7
02ca
4f06
53e0
3537
766b
65b9
a371
2084
ce33
584b
49de
0da6
62fc
8339
38ce
a770
90e8
3883
1b31
71cb
4f4f
72ec
a2d5
ae56
012a
0210
f0a5
a1f2
71b1
c84b
8baf
2016
f2fc
2a83
3b53
f170
f134
4970
7576
e5c2
4445
dc36
6305
e59c
0107
08c8
96e9
d793
b070
6296
6861
0d66
45a1
c696
61da
20f6
4f0c
21f3
02f1
6849
0f77
e470
20a3
6581
8966
01d3
0bda
4451
d3a8
4458
90e1
e567
ecc4
896d
0115
12ab
1e52
5d25
900a
01c6
d10f
4da5
387d
4613
10cb
239b
01a7
9214
7b82
0467
6f11
c63f
3972
f4b0
dc64
70ca
e98b
4343
20ad
10b0
2088
8cc9
01fe
1009
020c
6f8c
1f41
ba66
6c10
5d75
dc2c
3638
c770
01c1
20bf
2053
5f89
b492
10c9
103f
2083
2e74
3ad4
209d
6044
40b7
4fa8
63f0
cfba
9048
44a6
1577
4ec1
8e88
6fad
2f31
204a
ecfb
c8a4
625a
80bf
8444
dc8e
8fe6
eb53
1523
defd
6f31
dc57
36e1
ef70
89a5
c72a
dc30
9c0a
a6ce
dfb4
7afa
aefc
1229
dc04
38c1
f8ee
0daa
024c
03d3
1faf
7b9a
109b
6c2d
af88
8ab5
f09b
d095
0176
0185
14b6
70eb
89ab
461e
d10d
ddac
a870
eb8a
f884
0188
0b90
6073
c583
0b29
bd17
1426
703a
cc65
e564
6f7b
ab98
6466
bafe
9999
8fc1
5d0f
6403
0e0e
377f
7edb
2095
4149
d377
f68e
bfa6
1eb8
3a0b
0156
bf8b
d62b
4e70
3284
fdee
bfca
6804
22d1
b384
dcfd
6773
4bdb
ad4c
0215
4641
eadd
6a4b
70c7
7511
f1f6
0be8
68c1
6c20
e598
857c
529d
68bc
dd57
8ea4
01f5
4c49
79e1
a72a
9870
2021
f0f6
a03e
3d9d
02d3
dc44
6372
79af
ad70
fb70
a461
6731
107f
20cb
0b48
0118
30c9
7e10
3004
c1a4
54d8
429c
1075
1098
79f2
654c
c54c
0142
0b91
6ccb
1e3a
ae57
0134
10e3
620a
1770
f078
e52d
016c
6fca
c142
8cf9
a4b2
1d70
302c
b286
25cf
3002
0598
c124
a878
aa70
4e66
bdd3
3deb
7966
0194
f842
1012
059f
b1a7
20ed
75fa
f032
b4cd
c541
35a5
01de
efc4
da70
705e
ed5a
f5c3
f117
0f24
703d
7fa2
7ccb
43da
208d
9945
66b8
f182
f0b8
b570
2df8
a4fc
02fd
a578
e2b8
bd1e
8ea7
88bc
3a56
f0e6
4ae3
17cd
7d83
bdfe
eb70
2b8b
c40a
0561
bf5b
8c90
5af4
e046
bf4b
2087
a9f0
d748
dc59
63d4
108a
5815
3fae
e125
ba39
dd70
5e64
0f5a
39de
15c6
fb41
1df8
5f0a
a572
2d70
cb42
3365
0970
74ca
2137
7a86
f804
4719
0109
7b70
c1be
4931
0237
dce3
a8d4
1092
6744
f870
4b70
1edc
cdcc
b98f
014e
0213
38a7
9c5b
1053
ca31
c47e
f9d7
20ab
0b4a
f617
e6c3
1019
a0fb
25c4
5942
7e24
0238
7fe0
786b
52aa
01ba
20de
af46
3f51
4320
f02b
e8eb
5ce6
c7f6
6779
029a
58d6
1108
20bc
5370
d33c
023a
0fca
e9e2
bf28
ef72
f770
e08f
0df9
022b
02c3
18af
4c5e
d370
6461
e1b9
2fc2
4070
d02d
f00f
41cf
2077
208b
20fc
0117
715f
dc73
a890
101d
f56c
f515
17a6
2015
fe09
87f1
78ae
70c6
fe11
8b1b
017d
ac83
f083
d715
f3a4
e13e
20b3
5a95
ceb7
f0d2
a0c9
3033
fa08
e270
72b5
204c
516a
01b7
6f42
53b4
27bd
01b4
03f8
9c92
0f4a
6f9d
f0fe
02cf
f0a1
1029
e769
31df
9f10
0d70
12ac
100c
301f
39ad
e952
f576
6967
a8fc
8681
4270
4f65
15ac
1d09
eb2e
e335
4cbe
a5c3
8e60
d5f2
f00a
91b9
7434
42f8
0274
f0d8
5ae6
7559
d9a9
e577
014f
10b8
6514
8e2b
01be
1f2b
0421
b3c6
f08b
197d
842d
9b69
9a43
1379
dcce
3818
9ff8
670b
12cc
684a
7039
4444
652d
20ba
2a22
23a6
f06d
f034
3078
de45
f92c
c274
b970
f470
6ef0
205e
11fe
0e95
5751
85e1
e546
f038
3699
20a7
d7fb
f445
6578
436d
1c0a
5570
cee7
8945
03d0
3fc2
2049
6c03
88a6
e30d
c059
c543
cb99
01db
c1e0
3be2
9182
af2a
e27b
75fd
027d
68aa
17e3
37dd
b86d
d8ef
8c23
5228
2bd2
e549
66db
aa7d
8bde
1d6d
e735
a5d8
a4dc
6539
0224
03d4
4154
2014
fe16
9e95
c74a
081c
dcfa
de1f
caf1
56e6
893b
9029
8564
8924
e8de
e393
30f8
4287
7e8d
6846
8cdb
7f37
d50a
e5cf
302b
7255
3720
3045
2d46
b467
992d
01cf
0dc6
c715
c86d
0462
dcea
6363
9538
74f3
015c
0259
9c28
f093
dc62
8aa2
0fc3
3fc6
9ad1
23b1
faf8
516b
7442
01ff
dc81
383e
461b
1192
9190
915c
203e
2024
2b12
152d
26c3
dce5
38ac
38e9
910a
e3ff
791f
a0b0
cda1
28f8
8f4a
4353
9ef5
b1f8
8fb9
fc41
ced1
3238
203d
f01e
d6bc
6dc9
244c
8b57
2097
9c64
61f9
c01c
35ab
9e87
020b
5266
3fe1
e7dd
e3b5
010b
bfd5
bcb6
1a58
b5d2
f06e
37b5
6d31
017f
243f
974a
c6be
73ec
2d05
7769
b2ef
9773
203b
20a9
11b6
86af
1a56
a3de
91fc
5eed
0197
02f9
715b
3147
fdeb
1670
d8c8
a1e6
7819
02eb
a18e
1b0a
20a4
20aa
09a2
23d5
d25c
1a06
8d9d
20a5
9c6e
9a6d
b870
20e8
df60
c7b5
019a
5cd7
5c5f
d4d7
0e71
6522
6f04
9c81
1c83
5367
aaa5
e925
021c
706e
02b5
bf3f
d670
3023
2d3f
1190
4871
de70
4825
22ea
779c
ee9f
9e70
6430
8f70
337f
9afa
5b68
774e
02e1
02fe
91d7
6dbf
d90c
648d
cecd
b637
96e7
4c32
4cf8
15e3
109c
0cde
22e9
d770
cd08
20ec
eb9a
e473
1d5c
3914
6c0d
0160
3834
48ce
a2d2
d28e
bd6a
21c1
a5d5
5542
1ec7
af59
f0e4
d070
9bc4
384d
2f1d
b038
0271
02d1
862f
67eb
aaf5
fe70
f5ab
fdf3
0184
024f
c6c8
92e2
8d70
f0ad
761d
f0ab
77a3
a806
3634
fc98
a290
2de7
314e
de58
e73c
0381
0390
9617
6a9a
c4fe
7005
e55e
e57b
288a
c7e2
1022
381f
0262
e1c2
a0dc
0533
c2e8
4e49
fa8e
20bd
3f2b
a15c
e528
337c
665a
7c88
9f0a
dff8
39c8
f053
c55a
3530
1dab
f6ad
dceb
610a
b7ea
dc11
0b55
d470
d7fa
2082
0d96
be39
f067
f873
4570
f2d8
204e
716f
f6c9
dc5d
6577
c332
f6bf
f0db
104b
c8cf
7b0a
e38e
0169
4c70
202e
1879
c00a
1193
bc1f
c9e2
85df
1ff0
1bb3
892f
f79e
bfe1
3877
e5e2
380d
036d
d870
97e2
c02c
eec4
0133
8688
8937
70cd
0217
bc41
6c60
3065
a00f
014c
5cbd
d426
fb31
c219
b50d
dd76
0137
e1bf
20eb
4832
4954
f447
c418
019e
c63a
7833
255e
f1af
fa72
7477
02e4
20be
6d17
b575
b616
1033
c53e
f31d
0f8a
51eb
5254
0464
9c11
250a
20a6
c799
b69e
65dc
6c6d
8afa
02aa
515c
9239
65ce
0221
ac9b
0f70
f0bc
e5b9
f270
a548
906a
1551
5d70
08ac
c6aa
8f41
5c21
af0a
0d86
15ab
02b6
46dc
203a
2460
c40b
2692
2ebf
919e
e553
1013
10bd
4c4f
103c
3d97
f04b
9b19
8f79
205a
10d6
02c6
02c7
02a9
6a92
530d
b5b4
3d0a
3e70
6312
d00e
0243
0225
1803
4846
e4d6
02f0
e9b9
723a
9118
26c2
7103
ac5d
31ed
f288
4e3a
941c
1f11
7693
15b1
5b71
71d4
d79a
6cc7
9ae6
1061
20a2
4dee
01b9
3f91
f0fd
02f8
8bab
0b5f
89da
d2dc
fb23
907c
f215
4b27
9041
6533
65ed
aca6
e671
1576
9d8f
22e2
023c
dcd9
579c
4073
b74f
1c8a
af41
9fc4
f0b1
1084
1dfb
cf38
b7d0
726b
1e0b
ae47
0ce7
b1d4
ef5e
3863
5e88
e4f2
02cd
a121
7d07
cd77
021a
b8d8
dfd2
5ab6
d6be
8c7a
9f7a
f06f
c7ca
dc4e
fcab
5f94
8ee1
f0a3
dbf4
3824
391c
02a1
4655
d5d6
2098
f08d
202d
6f85
e6b9
d90a
493c
b443
576d
d91f
02ec
5c5d
c06c
dca6
e548
a9cf
bdf1
c779
101b
cd16
bfe0
b6d2
8570
cbdd
6ed4
15ad
fded
9c8c
10de
759f
7064
b2de
046f
d613
20ef
fc43
7455
016d
e790
f0dc
f0cc
3253
f027
1348
8ea3
c14e
0dc4
e5c8
f0d0
f05d
c713
88af
46f0
035f
3866
4225
5d5d
02dd
029b
d374
ebda
dbee
7b57
38a9
cbbe
4a09
46db
7e9f
534e
0246
082d
119e
19cf
33fe
32cd
91c7
75e9
bd57
0936
bdf3
11a8
fcb5
a10a
c320
afa6
2afc
ab69
028b
883a
d45f
993e
0228
7171
b1af
039c
6f0b
a370
c7e9
de9c
7ed9
7518
ce62
0b64
08c6
4c57
1757
5d8b
9d77
01bf
38f9
9cf6
e669
d2c6
7e70
8238
01d2
96ce
4370
2d64
5b1d
033d
d674
fad5
c457
e9b1
1b5b
a0d6
f06a
0767
881e
1d13
1dfe
3247
400a
1c7e
786f
3a5c
f07c
bd77
d38a
98d1
fed0
5868
878c
9eb5
d61f
1c1f
8c9f
793b
dcbe
f0bd
b2d9
102e
a0fd
8a6d
01fd
4845
f073
7767
038e
acac
1c70
2c68
a7fe
bf4c
dcf4
3892
20bb
10db
037c
1ef5
300d
3725
9e22
1058
b592
c76a
7148
28a4
10b2
ee83
8cd7
8b0c
fdf2
fd70
22c5
38c5
0fc4
c1a5
fc47
c746
a40a
bf85
4fb2
3ad7
e4c6
19ae
e59d
38c3
0fc7
be0a
f01b
36b0
8cd6
10bf
92b3
02d0
c694
314b
21a1
89f9
7c48
813f
a46b
fa11
ed5f
5eb5
e72b
382e
5198
eb5a
e460
ad62
28af
4145
695d
f7dc
caf7
86f8
39d1
e511
dc76
1160
6060
4585
474f
3e2a
e00c
029f
563d
f0ef
e5d8
f7aa
4156
eaaf
79e0
f033
2938
0248
02fb
b80a
5f3b
d8f8
482b
1036
2e6d
028a
e1d4
8fe9
1838
9a3e
d5f1
021e
12f8
9ac6
a224
e958
6d1f
ba85
0256
cf15
3027
5430
36de
2278
b20a
7046
4799
041b
36ec
8d74
ac49
fc39
5541
bd3a
8f4e
884f
4f22
f079
a060
d16f
15f2
9cd3
c095
0514
f056
d923
f5c8
a09c
a8fe
dfc4
4a59
e54a
7775
20d9
887c
5155
9f0e
c735
de76
d378
4355
e51f
e40a
020e
f6ae
a6de
10ec
d334
a05e
d0c2
d6fa
04ec
c693
f137
4f46
e57c
749f
eede
4349
6b2e
ed9a
01f3
8634
9fc2
9752
5bd8
ddd1
c824
d2b9
2f69
4e05
a55e
015b
2d8d
b3b8
0bf0
5df2
ca6e
461d
7ca4
8781
8028
e517
11fb
43f8
4c09
01cc
3fec
4554
656d
c927
08dc
fa56
f32f
7078
38f5
8970
0e7a
8eb5
b371
a0b2
5d77
016b
02af
bfbc
d398
2ed9
386d
6670
c15a
5bbb
2c71
f8ce
74db
7a46
b9af
2970
f0cb
c11c
3d63
f634
4f71
9d06
8eac
a710
bd46
a91a
8bca
12fd
75af
6ff4
5bc4
023f
5a78
f035
a4a3
c9b4
b5d3
e5b1
c215
aa68
01dd
02bb
049e
9181
2ad6
c2de
490a
8786
1c91
89e3
de08
dcca
f4ab
5c49
f0d4
f04f
6525
053c
36a5
0230
31c9
a2d0
2b1f
e19b
3b56
bcb8
f05c
1b18
f003
984a
cf5a
445c
dbb7
6768
752e
8e5f
0409
bfad
b68e
c314
02c5
dce1
105b
835e
10c4
5717
734e
04b9
f8af
4955
f048
0b6c
2152
80f6
e5c5
95f4
120a
35af
87c3
382a
3860
67c8
7e55
73d6
696b
6544
4802
e852
9cf0
36b1
b1e1
a57c
0ed5
de0a
9cfd
4678
115d
887e
10e0
a37c
d223
94cd
2db5
7b97
12fa
618e
5e49
5b60
02c4
02f4
71c3
38b6
cfad
b536
0232
0229
a6be
a826
f8d7
e5f4
fda6
bf05
3320
ea77
4e0a
d408
e5a4
3261
02fc
08dd
3149
1c74
5a70
e510
12d2
69ba
dccc
ae87
08ab
68d7
1ce3
10df
f84f
238a
3d93
5bc3
14eb
b35b
f071
fecf
dcd7
aa78
8b1c
4c6e
c166
6858
d85a
2452
6be1
fd18
296c
be37
0196
040f
86d5
ef0a
7a70
4473
90e0
5e07
d26d
031c
af98
739a
b3af
1794
f08c
0da8
8c68
b9c8
d14a
6399
3e83
6f4f
dcb2
dcde
ccb5
f099
e2ae
fe25
107e
876b
0292
33d3
6528
c75f
d0d6
9060
029c
0296
8a72
15a5
a38b
fe17
b549
5ef8
dc53
9157
6272
b5be
01d8
08c9
117c
e5e8
c428
e259
b7f6
37d4
5535
169b
7c57
dabe
446f
034a
e539
0212
02c9
f1c5
6d98
0158
c68a
0951
907a
573f
9c1a
c1c8
4124
f0da
391d
9ad8
cd20
624f
c437
6f88
ad5e
d6bd
81da
6168
23f0
b92f
721a
3370
c815
a00b
bf88
818e
a30a
7e02
a469
ec33
4520
8bc6
592e
cd2f
3608
b3b4
541f
f0a9
017c
08b6
3970
0893
0b7f
381b
65c1
c7cf
03a8
46e7
1c9a
2fed
dbe5
cd72
dc6e
0d6a
47a3
6f4c
39e0
1525
3e57
023e
3833
1f36
5c1e
a8ac
f548
90a2
b564
245e
e9d2
95e3
21f8
0281
86bc
c89f
c7d2
6342
fe55
0875
385f
38a3
a8ef
1014
9fec
e420
6d08
233e
6945
a7b5
0f87
f10f
dfc2
e0d6
3534
41f1
0244
119c
070a
2265
022d
0f9b
7c4b
af1a
ca95
90e7
07b7
dc06
12f5
6fb6
1c93
e521
1d0a
3891
4645
ccd9
d1d9
5b4e
b20f
029e
bf0c
b8e0
c5de
e561
8084
c1c7
f12f
0b5d
316e
a030
cfb0
d2b4
2d75
74ae
1479
c47a
ded5
19c7
1df1
bf43
bd22
08f0
118e
5c5b
8598
e538
6b9e
f0f5
7156
c695
b981
3062
e134
2f74
1b04
e020
1e9b
0f3e
6138
69af
e820
11d1
c12e
4f70
e5c3
e10a
89bc
c019
028c
0376
6fd1
a2be
1df0
722b
38e2
b646
8a2b
d9a7
934f
a16e
b0f8
bd79
6f7d
4afc
cefb
dcb8
703b
2d0b
a506
01dc
01f7
c116
431f
1527
9960
263f
3f70
47bf
2bdf
4366
dcf2
10ee
abf8
8402
5da3
8854
695a
3aa7
440a
889c
a48a
9c55
3063
32c7
0723
172b
5b85
876e
6fd5
6f3d
3671
c1c6
a97c
038a
314a
1cf3
7f5a
4560
ed55
4c30
2420
827e
534c
23a7
71c8
c82b
c493
f063
1932
322e
e691
3ad2
7306
d093
03dd
9a76
1a5d
231d
a4f0
dcac
dc7e
b2e6
a082
e52c
3630
ecf5
b57d
ce8c
dd7b
e192
707c
82c7
1d6a
23a4
dd87
dced
e296
4574
4442
4d45
2be6
1562
26c5
cc4a
a177
8b35
bdf4
aa0a
4ed3
10a6
0222
dcd6
169a
1557
33f8
133d
be42
9c48
436f
0dc8
9d46
f16c
3d31
d78f
b1c9
2a44
f370
440e
a47e
2593
13cd
780f
dc2a
cc49
cf73
bc4d
f037
8c6e
354b
1173
d0b5
579d
8192
4c53
6269
44a7
12d8
f631
a24a
be44
0298
d3e6
b3bf
c275
42d2
90b8
f863
a00a
bd74
6ab6
6e77
654e
6a1a
c41a
0373
5490
9dd8
352b
6dad
02cc
0242
0579
04da
465f
e6aa
6bee
10a5
8460
5dfb
d978
ce9a
5bd7
d0eb
f4a7
0253
28a5
7fe3
b9d5
3fad
020d
7c43
ad7a
0b7d
6624
76af
cfe9
6375
5add
c2be
cd56
a064
8bf8
7284
f2c4
770c
e31d
024a
d68d
f212
d69b
f0e3
d47c
d7d4
3746
8dac
1936
07c8
2e38
026f
053e
3b70
43e3
f017
6b65
d6b1
60b9
2d2e
590c
030e
ac4d
91dc
39ac
bd6c
bfef
28c7
dcc6
b8dd
0fc6
8e07
4919
2ef8
87c4
898a
a747
f99b
0474
c645
e1e7
5ad7
1a4e
2e71
1037
6238
b0a2
0d74
9636
0f88
5606
5fd5
8ba1
9098
8af4
300f
a52b
149d
0415
719e
c6ee
c637
afcd
b4ac
f27e
1d6b
a5a6
dcee
2bad
b6d6
e523
a468
2260
5427
ad23
e38a
e29d
1768
5667
d3d6
950a
a7ae
b80f
dc43
aa5a
8b08
705f
1042
0568
11a9
4136
4e23
8f85
104e
3e58
73aa
e73f
0532
6604
919c
73ac
d323
7a56
d737
eb68
63d2
6921
e5a7
c074
e8c8
a6df
f020
8fa8
e7bf
d7da
071f
600a
8b2c
26ae
5cfb
7fc2
ed5c
afa3
7d4d
1e8d
8630
617a
92eb
c460
fd9d
38b3
fc5f
22bd
a93c
1529
016a
2a6b
0294
5f4a
f44a
f084
c53a
7b1d
2f6d
1963
2ac3
9cf3
5454
5753
b5e9
4bc6
dd73
a092
3ef7
4675
cfcc
fc33
4c03
9fc3
ea57
f45f
c021
523c
b4aa
c8e8
1054
5a31
6264
cd75
802b
4b61
6179
e0b1
b09e
b5f4
9248
38c2
cf08
8134
90da
7071
e268
3207
bd5b
025a
3856
69de
e220
0b05
97c3
02f7
e13f
c25a
e23e
271e
f055
b2d7
c756
ed52
271b
59f1
0254
385e
1126
d1b0
4f0a
b920
b4e8
90c6
862d
e7c6
6a0a
43e2
fe13
b4fb
02ef
4c31
3885
f283
620d
a57b
dec7
076f
a735
b68f
7f4a
c827
4839
fb03
5bb9
1ea6
0247
78e7
6a96
6d58
dc66
f4a9
c0af
c4be
2c6c
4b45
b07e
632e
9d7e
6193
5ced
e5d3
4a5c
8a93
e562
2bca
2318
45a7
dc93
6471
e298
e545
b197
a5b2
357c
69ca
6327
02bf
027a
7184
3035
6816
10ad
6924
a5f8
be45
6fbc
d1ee
ca4d
8ebc
f539
d08e
8ea8
bc0d
eaad
027c
741f
d433
29fa
7772
7a8e
02a6
08d1
1236
04a2
7248
049a
9ce4
97f6
fe81
f0f7
d560
03c9
08db
61b9
7e15
dea5
9f0d
b0cf
88f8
bd2e
022f
0b73
af3c
52b4
1e06
a0c6
7a6d
a90c
01df
f11f
eade
bd72
593c
d247
dc42
f04c
8964
b82f
483c
4a49
74b8
eb5f
3711
58f3
6b69
c78c
01cb
1c7a
83da
5ee8
726e
3887
4202
ad78
02b8
02ea
11f6
b8d1
cf10
5f87
d0d7
c524
8f9b
d8e8
8ee0
45c4
6f76
38f1
3637
a089
8d18
380c
7a61
164c
e2b6
e95a
c990
6e09
ae23
f046
3ef8
4a8a
918e
a87a
6bf0
ae85
ea02
01d5
12ea
9a48
6d69
c536
6575
c9dc
cb81
388e
b762
08ad
b454
d166
ea17
a76b
c2a2
01d6
dc7f
ef12
d274
addf
e543
ae67
f23d
03e6
71d2
dc7c
dc1b
ba32
e35f
304d
dcc4
4b68
55cc
7b62
838f
f4fd
dcf6
b95e
42da
1e0f
63aa
6f26
dcf9
0fd8
c8ae
b2b9
f0fc
d73e
4907
b495
028d
ba2f
5b3d
788e
63c2
cb6b
0116
04c6
6f5d
964a
d69e
3f31
819a
ab6b
02c8
8f0e
c39a
a503
f35e
7b07
1dd9
7033
8fa5
5b1b
0724
6d27
8f2e
dfe4
ab72
bd16
ee2c
c6ab
ba91
8b0a
49e5
9ee2
8ffe
d3f4
6065
a6f6
a52c
0806
7182
dc48
11ea
730a
9a1f
a05c
140f
73c7
c107
935d
10e6
1a0a
7478
e2ed
4862
9965
36bc
c2db
f7e9
5e23
9b84
0463
91bb
c0e6
234d
6b61
0311
d6af
0d8a
7d23
6f41
f047
0fa5
bc6e
bfb3
c66b
b6d0
bc83
491f
672d
e1f8
9199
df52
f0d6
63af
f077
c115
f11d
5ea6
9da2
02da
bc48
94ff
57d7
dcc3
bd47
3ff0
3a65
6248
466f
68bf
96c7
0fe9
4f5d
da54
7a18
9c8e
1843
919b
4ddc
d7fc
c81e
c67a
e1ed
11be
1c3e
f896
3a5d
6576
1035
3a1a
02f3
2633
715d
1a5e
8bae
7a1a
6b5a
f064
19c5
7d27
d008
0543
d3ae
02d2
12e2
c6da
4858
d3d4
9b98
35e5
246c
3262
4b60
6735
fecc
146c
3852
c80a
73d7
5b20
f09c
1031
e5a2
fc2a
e7e7
73d3
3034
550a
f049
4c69
07a5
f6af
dc1e
38dc
5627
735f
40b1
3865
c01e
e462
5ec9
387e
d10a
91c1
81c6
e5b8
83de
3e86
02df
dc03
dc1a
e48f
3b48
b3f0
f425
e3d2
307a
3546
3d76
4745
679b
7d88
cac7
db9e
6f3b
1156
68b7
6cb1
10a2
f062
2ac4
38f2
8fce
af82
f0ec
b218
269b
e1ad
9c44
883e
9ae8
4504
3075
1afc
9b89
1e7c
7724
be5c
d78a
e00f
caed
5aea
375c
456c
63f8
d1ae
770a
707d
f04d
6727
bef2
389a
d6da
5cbe
ba97
5b32
05c1
384c
3654
7376
da20
f0f3
a08e
6917
d9c8
d871
c192
6be3
39ab
1c0c
9c02
7018
7330
e403
6075
07fe
bc3b
d292
4ba5
23a9
724c
037e
38de
1b57
9e08
e51a
3ff8
93fb
574b
661f
ceea
dc67
451e
a018
8e95
03a5
bf5d
2a0a
3862
be1c
fd9a
0486
04f4
dc46
4c1f
95ca
8e38
e90c
0276
9c1f
9ca2
88a4
3503
c21a
6ef5
e3a7
76ae
df88
5559
9046
4330
021d
02cb
6158
b104
a0bc
8d0a
84f8
9894
11bf
e68a
c1af
ec0a
10d2
326e
8e7b
6be5
d85c
c8af
deba
d0e6
1715
479e
38d4
e307
d4e0
fb0a
dfff
d56e
9564
b397
02ce
9c9f
e5b3
f3df
7a0e
088d
26a7
5661
3ad5
4374
c752
8523
de14
1565
19fe
a00d
c6f2
9c72
e064
5d4e
ae9d
f005
0211
dcb4
dc1f
afe0
7b93
d23c
33f3
5b42
234e
6524
3848
9c71
a0b3
11f9
1006
a383
bfc8
f39f
e58a
e91a
657b
74fd
dc4d
9ce7
f103
8ac6
b5e8
e58e
896c
8afb
d878
a80a
8c12
82bc
c9ac
2ec8
e502
08e3
6fb7
bf60
9c31
8ce8
aadd
e563
c038
306b
2b9e
9741
0319
e61f
df86
f1ad
f30a
325a
d29c
96d6
ec31
cad8
4a41
fa15
dc84
8228
a75a
70d1
9e0a
b0c8
5e83
15a3
3875
0f98
4f93
15b0
e5c4
c01d
723e
2397
47bd
4619
c1a6
62d4
8edf
1403
1dbd
ae22
f984
745f
ede2
305f
4057
3016
3d45
0b3e
8489
38e3
d6b4
0920
a7b0
3ef6
3071
7961
fd39
acfc
85b2
90ff
4814
c41e
dc7a
f0b3
70fa
aef6
5c60
2db7
f3c5
0574
c64e
6307
5a42
c2d9
fd0a
3069
bd3f
e527
08ed
08ce
dc10
d73c
a078
9568
f00e
1103
c19b
bc93
c4cf
bfc2
9c54
36a4
f1df
c2b6
f069
70c3
90ac
996d
350d
c59b
0417
614f
d9e3
77af
a0d3
3f67
380b
46f4
c24c
4f44
94fa
7903
675d
9e1e
0361
e8ff
8c1a
3508
69aa
352c
6d3f
260a
8528
f81b
db42
40f2
03ea
dfdc
5755
f022
c039
3eab
ce4d
48ed
73ea
e2bf
6e06
e81d
1d36
11f8
89fe
ed3d
dfce
e576
e54b
3532
9497
44e8
f2df
a712
c1f4
1dfc
1731
400b
885f
9c62
7231
f73f
03bd
3b6f
a104
7334
47e6
5b8c
2322
dc05
ee39
031d
bf5a
c73e
6fc2
31dd
3f0c
b1fe
02de
6f3c
4f39
d9eb
90dd
c1fc
8795
b999
e76b
1ab0
627e
19dd
3af1
d463
04d9
38e8
9116
ec45
0d56
4926
6968
e186
861f
56d3
57ac
0d5d
3e8a
c31a
38e5
69da
c2a6
75b2
bff0
4b4e
496b
2735
7706
b193
bc10
1045
e868
f6da
312c
a8af
9a86
39aa
c9f7
d1a7
4f4a
d7e7
fb90
706d
11f2
87fc
6fd2
38ad
8619
70c1
2760
ad36
028e
6f66
61bd
568d
5f10
d4ac
879a
b8f0
aecf
23b9
c41f
1024
aff8
c2cf
e08a
12e1
9c9c
0cf1
a1d0
8a58
7a7e
90be
ed75
c6d1
56d7
3a76
835b
0251
28cf
dca7
35e6
4b7a
0edd
edb6
c0dd
3a6e
e7e9
3a27
5346
02ad
056c
cce7
6c16
211f
3759
dd72
dccd
b268
558f
8169
71ca
cf1f
4142
5fda
d772
d279
dbdc
35d6
2d0a
6864
162d
180a
9ae2
2a45
8421
42e7
48f5
5af1
8555
1c3c
2446
19b1
e0d0
e727
3696
d656
d126
82e2
e5f8
0e6a
958a
49cd
6851
2f0a
57d2
e9da
2449
6d24
91f5
ad7b
0504
7135
1603
f0b4
64ba
22bf
9956
5baf
4441
908d
7a3f
425a
8fad
4029
3011
c7a2
6f60
714a
b63c
5572
6234
a3c2
054f
d84c
1a5b
b996
1528
ab9f
5db3
40d8
5c65
f031
3289
c8fe
1924
6d2e
f76c
ac2a
1636
3fba
1923
f03f
07ad
398d
b2a7
c61b
dc5b
9c13
2cd1
f058
c9c6
9dbc
f092
8cc4
9cd9
218b
e20a
325e
6e07
9032
4af2
315b
df16
4804
e302
f07b
174e
2aca
fe35
9ca8
19ee
f90a
828f
2282
bd3e
b7a7
0295
7689
df20
fad3
64bb
c306
a478
8936
c93c
879e
022e
f1a7
c9eb
0774
ddd4
5e1d
5749
9e32
9cfa
5c93
fa04
ab18
1518
1d2b
4485
cd24
0888
e11f
8124
15af
f094
fe10
c060
de17
2fac
9249
e138
2c10
910e
62eb
92c6
3d0f
f09f
1589
e718
c084
1729
27a8
dc90
fc0a
65de
477a
9ce3
69d7
e423
6de3
10f9
9dc8
c429
027e
e0d4
3073
a062
1bc3
59fb
6331
ae37
e5b5
b3dc
c559
c908
fc69
c96c
92ce
fd9b
041a
c6ec
18ae
4f56
73f6
3903
b39a
d278
02c1
08c5
046b
6fd9
0f41
bd26
fc6a
8bf1
7007
b769
0324
2f59
a3b8
87f6
d7fd
dc68
dbbd
b3a2
6f2d
a6b8
8a23
795c
a5cf
82f8
e02f
994d
bf92
718c
ef5f
c2c6
e4b4
5ed3
a07a
3888
4715
3d78
6395
9cc6
7662
d8df
65d4
695f
839c
e2af
d272
7058
703f
736c
6d48
a5f2
0961
152c
c6ac
51b7
b2fa
92ea
21f1
90ca
02d6
02f5
dcf1
b2da
9746
2d62
5d27
ea6b
02b7
cf18
f17e
9520
1b98
ab16
f4cd
6d5b
3a59
850a
1d16
f6c2
af99
af43
a1a2
6ac6
32c6
90ea
48f8
e5ce
5ff8
a449
720d
2c8d
6a68
049c
8620
4fe5
7356
e951
7b56
a0fa
edaf
7814
7e53
eda4
02f6
e14f
78da
8bfb
4ef2
eea1
7f10
4899
0790
0dcf
6ec1
9c0c
f004
cf1c
9f78
5394
f09d
f04e
e934
4943
1055
5abf
b014
158f
def8
d5b5
7f17
697a
77f6
6862
574f
ed8c
e68d
d8d4
3f0e
5130
6de7
e53c
dc49
9c45
37ec
2329
dcb3
1149
0f0b
5a72
e56c
a06e
909f
2ba9
17f2
6006
bd60
cdb0
382c
4c56
1e02
702d
d948
662c
adac
3ba8
08af
9cad
81de
da4e
3390
7ed0
b93c
a093
a919
ee1f
5c16
51ed
15e6
a05f
b86e
90f8
878d
cd3a
dce6
ca78
a573
af64
fcc9
761f
b10a
5f4b
ca1f
8ae8
359f
b5bf
90e2
fbfa
758b
0b60
09f3
36f3
c003
bf8f
e1bb
8611
cad1
dba9
10a8
1906
ac52
64e7
ad5c
5bdb
5e0a
1d90
3812
d07a
6113
93f7
e315
e604
a1e8
eeaf
60d6
e5a5
7565
7d14
9d42
1d17
029d
03ba
3822
af16
4f15
e2b7
2703
aee7
55cf
1907
ed3e
9ce0
866b
3a75
39e3
6923
24d3
577a
dee6
bd4c
90cc
af6a
a577
ae99
38a6
46e0
7803
22e8
aeb3
c546
22c2
7530
71a5
1fe9
9cf8
78e3
e51d
7563
9cc7
f23c
581f
339d
548c
bfc1
2f73
8ad9
69ff
8374
5d5a
f0f9
1aa9
56f2
a78e
ca0b
ccbb
d3ec
3861
7d6a
8d5d
9ca4
482a
1bb8
90f2
15f7
d335
08c2
8cfe
b81a
e8ba
a6e0
6151
c144
f8ab
e5b0
aa33
727a
1596
bed5
f0ca
f013
2367
dcf3
83d4
f095
ce12
a0a2
6f0a
cc9b
df1a
90b2
c094
700a
8789
044a
9cba
afb3
07da
cd65
f7ae
5877
3f86
48c1
4a20
c2e2
a7d8
c02a
c6d3
9f2a
ef14
9ae9
fa1f
d7e8
ab5a
c030
e23f
8963
2b1b
26bd
71dc
f666
6693
7634
48d2
9422
0e0a
8865
6289
b3a3
38d9
bcd4
ecd1
295f
fb72
3059
a318
c2aa
36d0
0f9c
399f
8afe
4c64
2ba3
8a0d
e956
f2b1
93fc
1af0
dd5e
e41e
1273
b278
3291
a772
901e
070f
7e47
a29e
ce3f
8638
c3f6
5971
bfd4
2145
a3d9
7e5b
dc5a
9678
0c27
d23b
2b46
6719
c2ce
c2f2
e3f8
24c1
8a1e
7e35
c734
0418
386f
9f71
e54f
dc6c
3bc1
5c7e
7426
4478
f07e
6bbe
16fa
957e
9a8e
0576
6c13
418a
a928
097a
ede6
7079
703e
093c
a0fe
0846
c65b
1f87
51d2
a3d8
6d06
afa2
e168
f4c1
83c7
0382
bf55
dc97
b8ae
b1ea
82da
f5b3
f02e
d717
4af3
e26b
1fad
c464
82ca
7b86
8e37
a6f2
fe42
0493
1c10
e50a
dccb
0b45
6ba6
6b30
9c0f
26ef
dcf5
af4a
8adc
be02
3012
9506
03b9
05a3
0447
0f96
2189
f0fa
9a0a
3326
b3a6
2399
82d1
cee6
1e14
3088
901c
291c
2d3c
05ab
c6df
eaff
cd73
c539
c11a
c569
8bc5
ed05
618f
b438
82b5
88c8
e591
aada
b26c
b53d
3658
569a
c2bb
c4ac
5d1b
e78e
c646
b831
d893
9f08
b3e1
b2d6
9b0a
b70a
3819
358c
a01a
a7a2
110c
913c
15c3
246e
b38c
6c0a
5feb
a154
090a
9d20
3049
46d1
b658
d8db
0c9e
b90a
d4b5
90b9
6df6
070d
4e4f
67c4
c784
de3e
e4a2
dcb6
36d7
95e8
70ab
f061
a094
3889
b012
d92c
26ca
bc7b
8c76
c8e0
a559
7946
491d
c284
188c
678c
6579
9ea3
c8e9
f018
4936
bfff
8239
4160
4e2e
6e44
8e5c
cf35
5c1f
7843
b3e2
8910
2bb9
140a
7a8d
dc0b
03bc
2699
dcba
9c76
304f
22ce
c51a
39ae
e20f
bf6c
880a
33ff
22de
1526
e542
a088
88f1
8347
9e2a
0814
6f57
f689
ac8c
78cf
8824
cadb
1a03
57d9
db90
1e26
60ba
6369
572b
a99d
adf1
dc8c
38f6
8677
c857
303b
8208
b551
7263
3b1b
38e1
b6ed
76ff
e5da
2497
d7e6
32b0
d296
ad72
9af2
381d
31fc
90f0
d46d
3719
401e
bd36
71d5
117b
b8c9
ea9d
fb56
fe12
6536
eba1
22f8
f113
c7a5
ed23
2ab2
f3b6
1753
5d8f
0392
dcbf
ec90
157a
6460
15f4
f53d
2ba6
84f9
38bd
9c56
2493
9cc4
278e
97b7
b92c
6fd3
f6ac
38ec
9cbf
9cb8
b2db
f03e
96e2
cf88
5c8e
78c4
3a2f
a134
33e1
19e2
7367
e073
308f
6738
ed62
12f2
26c6
c632
e6b3
7c2b
4477
9246
10a1
9c60
a23c
8b63
e873
e6e3
d1c6
f897
2a3f
d2bb
a972
4b0a
4965
224c
dea4
26c1
2c2f
ba90
5488
4326
e42f
c556
6ba7
af6d
a784
b1e3
e5dc
d7d6
25d2
1099
9c66
c2cd
68fe
bf9c
68c4
c1bf
5673
3f44
f14d
7a9a
b5bb
5b9c
a06c
5afa
d345
90ae
196d
5baa
1a83
ad9a
6f5a
71de
383c
9cd5
d628
883f
35e1
616b
3864
1df5
22c8
de88
9c99
d193
48ea
62be
82d9
90b7
fe26
0c65
32fb
8349
9004
a783
fd96
03e9
ac90
dce4
6133
518e
67db
db92
628a
15aa
a69d
8892
2a3e
c4da
d262
b096
120b
35a9
6da4
0866
b1c8
3f2a
dde4
9b48
8c02
48cd
e5ec
c35e
69bc
45db
3e20
493d
753d
a6f8
a4fd
c7c8
c692
38c6
9cf4
814c
ea7e
65da
eb59
5391
c70a
a812
d561
6e22
631c
fd9c
d85b
8c73
c45a
22ee
fb5a
b035
d5ca
07fc
3e31
c723
7193
28c5
f0ba
f0e0
f059
dabf
cd6f
5d0a
9014
cbb7
d44d
6b8b
a010
aea6
08e9
3881
11ab
a60d
7f0f
ca76
ea9f
8aee
325b
525a
a9e3
47e1
04a8
869e
af1c
2f6f
215e
8ae6
99e2
fd04
8dbb
3e11
1dcf
9e6b
248b
9e38
be30
bf25
c8d2
64d4
d3d8
c4fa
e49a
dec6
b36e
1e1f
5bc5
6a0c
85ed
d222
e15f
e6a8
c411
ee93
15cb
e81a
65b7
c92e
38a2
9c36
c148
8c75
ca0a
d3bc
cb1c
6063
80ae
4007
6d30
c922
08de
2623
5adc
19e5
a278
b360
27f0
980f
b22b
c722
fd66
6f89
cc77
3f85
f052
a3da
e25f
b257
870a
30ca
4e22
72ae
ca83
f011
040b
ac4f
38db
3133
1804
9198
41c7
a872
7422
d720
ee69
231c
6ca1
af12
4fbc
e438
cfaa
8063
08f4
04b8
dc91
1f1d
21ce
ba6f
35e7
fbc6
893c
2587
6783
1fec
4697
36ee
bc4b
af4c
3f10
2323
e097
d0a4
0d9c
f2a8
6f43
9c83
1c8c
bd0a
1afd
751c
4563
5b3e
8cc8
7e82
bd78
23af
e47c
d246
29bc
5bed
d907
304a
c54f
a019
3007
0566
38d7
2aac
481f
3e1c
a463
172d
e7f8
f010
f997
71b7
dc41
38ff
38aa
0f46
88d1
739f
25bb
bd48
5930
e71e
a966
e441
3d2a
4e52
94f0
08e0
113a
6875
cf04
e39f
d77c
c5d4
b792
f957
f0f0
27fb
5e45
b5a2
02a5
e4e3
6d42
070c
5d2c
600c
ab95
e4a7
f806
03ad
bf16
da34
99ac
a07e
4d6b
dcaf
7c53
9186
a4ac
7e62
08e8
0835
3652
7897
91d4
f0d9
a05d
951c
15a9
27a5
ab63
1231
dcb0
dc17
d226
6262
bafa
d5c9
8b3f
634f
5d24
87f4
b3c2
26be
b8b8
5f83
9376
e32c
a098
9081
ce8d
edfe
c8ce
f854
c915
22cf
5b38
6b6b
8b68
bd33
c5b5
05bc
bf51
18e9
cf05
c052
beac
ae1f
a163
5d47
8d8e
900d
0252
dcb1
e720
2492
e9e9
a90a
2ed3
cdd7
a0ea
e536
f0c4
381e
1d15
322d
6d3b
a768
d7ab
0ced
7c3f
ca72
e2ff
a95f
4267
2d31
5acd
c335
f87e
2141
3ab4
cade
c75e
59b6
0973
a70a
1ebb
dd06
3e1f
5735
77a8
820d
ed17
0f53
327f
c020
a091
2f6e
3968
1734
6766
ac4c
e6ed
0fea
78c6
9191
8c1f
ec5b
cabe
5ae1
ee04
5343
a911
5fa3
4017
f7c4
088f
b6c8
5699
88d7
2f96
5a7c
84b5
9ed5
7076
744b
1e27
714e
d1ea
df10
2e26
2e69
5fb1
4a79
72b3
199f
9226
aebb
a464
a168
35cb
6112
97a7
d384
c60a
8ada
430c
49a8
7d3b
93ca
6fed
0b7c
3656
3616
a67c
18b7
f0ea
dae0
35f6
bd08
353a
bd4d
8fa6
11f4
fbce
dcdd
1106
315d
219a
b49a
949a
6be7
f7d3
ed98
f044
6ba4
d161
30a4
a115
2aaa
8aca
5fe1
212e
641f
5393
840b
840f
3827
a6b6
8fca
3a3b
eb76
62b8
2578
1dfa
701b
3094
ed1c
5ffb
0df8
2785
a94a
dcf0
afb4
0d73
7a55
2303
f3ef
5bcb
e38f
08ca
28d7
ac4e
9c4e
e6b2
7cb2
935e
8c72
c8c1
c422
fe21
3e06
b88d
1ea2
7e95
a1f0
f33e
08fa
2781
9eb8
b812
573c
53c1
afc8
f028
b75a
6b98
c28e
e33f
c691
8fbc
8f1f
48bc
9a94
c338
e3bd
89ba
5b7b
c036
f217
e016
35cf
6444
8d7e
0822
1c13
6197
e2b2
f097
f076
6dc7
19fc
81fe
e59e
04bb
dc9a
dc12
38fe
36af
e656
cfec
6c93
afb5
1a54
2a78
4061
7d1e
d44e
13c4
3d8d
7b65
b925
b3a4
b48d
feee
c668
bab2
d054
921f
40ae
d06d
0ef4
248c
3dab
6907
08cd
1687
3143
c271
d2ba
abc6
22ca
5d7d
6acf
c738
e1d1
962f
88e3
3ad1
f0b0
f045
96f0
ea6a
146b
f6e6
187c
bcb7
a8da
ea41
65e4
23d2
1862
ac6a
9dcf
9e34
0477
6fe9
d8b4
4c95
690a
fb46
7cc5
0cca
6418
122d
9cea
6622
6668
969c
0dac
5ac6
53e1
a9db
f9d6
a0d7
3e0a
e23b
881f
c31c
047e
dcf7
b61b
f87a
e5d1
e323
2d5f
a090
432b
79c8
f009
9a22
8be2
1b0f
af6e
159b
fda3
08b5
0473
48f1
ddc9
a9a7
573b
91f8
dd0d
46dd
18a1
df0a
210a
3a55
6457
8b89
5d9f
6ab3
49d4
25d4
f02d
2d6d
974c
dc78
ebde
b75c
4ddd
8bc2
ceb0
c616
dc5e
ec22
a490
4d0c
301b
0b43
7afd
2a8c
be8d
38d2
d67c
7fe2
e2e7
97e5
55d8
a073
acce
0c0e
08be
0b08
a7bf
cd79
3d33
8e56
bd5d
c673
dc37
4662
a6e2
18ea
0f2a
df38
2a20
3e1e
7f6a
1b24
a003
78af
7ad4
1404
9b4d
1b64
5248
6b97
75bd
7e5f
f00b
f64f
5645
6a79
15ea
4252
f5ac
709d
9bfe
cd42
8725
e6f9
0b23
b6a1
56e7
7f13
dadb
c3da
dbd8
3d4f
dd92
28a9
d8dc
91ef
ec78
9f22
a1a8
dbc6
f081
b51d
2c0f
4d59
c011
d00f
0563
46ec
8ce1
6ab7
62b0
f2bb
8058
e58d
3e68
79c7
0841
38a1
38cb
9cd2
113b
2c4a
81d7
f853
48c9
9f2d
b504
7be4
3332
1935
30af
8af0
8906
aeca
c4f3
fe47
08d7
38fb
b629
9672
96bf
8a7e
4dec
9d4d
03e7
86c7
7cd6
dab3
90de
bff4
b88c
0864
05c3
6f7a
38ca
36a9
8633
5cbc
af5d
b35f
d752
b0da
6584
f03b
307e
5760
e80a
28d2
9a99
5a5a
aa49
f2ac
dc63
a02b
a7cc
b3a7
d94a
28e1
c671
eada
c4ed
2469
5734
11d3
7877
cae4
e55a
67e7
636d
d739
afa1
6211
7915
5402
0eb9
520f
a92d
dd3e
035c
3821
b103
bcfc
307c
7c68
2eb9
62a8
8e35
b98d
8832
8cb7
e2cf
4d5e
920f
d6a6
7cf9
bc73
54b9
7073
6ba9
993a
2b9b
43ca
8e5d
95a7
f1f8
bf86
dcd0
8fc3
cf52
d658
2c0a
f8b1
4856
f090
6703
a4d6
6c66
dcc9
c534
b9a5
35c3
538e
6a69
1249
e157
1d53
3db3
dcc8
2327
7ac3
46e2
a393
c01f
52f8
c6c3
58db
8f2a
91ae
b55c
ae98
3ee4
751b
6910
b5f0
573e
6ea1
a067
c59d
e788
dc8d
b8dc
e6de
5c91
5fc6
e42c
fc6c
306e
1df2
15b7
4da8
86f7
ee2b
f5a8
c6ff
462a
0f45
e5fa
d9db
829a
4952
6b73
c05f
f01c
ad4a
6d35
8da3
88ab
f8cb
f051
57d0
07ee
4b1f
a096
cbb6
b162
04e0
c66d
58e7
18c8
1c03
c1b0
af5a
4f1d
e5af
23e7
e4b6
3e17
f110
f42b
9c32
31d5
b8a6
dfda
6746
c568
eb1d
3915
07a6
5b27
16ce
2391
44b6
ce9c
4d0a
3076
903a
9dce
1585
5b0e
9a68
e1cd
9c51
b848
c10c
630a
d3ac
e569
f023
ac6d
4b67
5b6b
6d2a
8e39
be9d
9c91
561c
c8cd
817c
1a36
9be1
0772
f0c3
a048
c46c
b0f1
2d34
a782
e784
26a3
11ec
a61a
8cba
e5bb
bae2
24b6
24d5
9753
f0aa
1964
b42d
6a8f
5379
f490
995d
b5bc
ce08
e5fd
ed1e
6925
648c
a92c
b12e
5fdd
cadc
9aea
8b6f
f2e4
fe0c
3ebc
8dd0
f819
ae69
0fad
82c2
b448
13f1
07c3
67bd
676d
7737
bfda
716c
ac72
c686
5854
d8b7
8c0a
f8a9
ba56
5496
c574
85d4
a0b1
d074
ae6b
b34c
249d
7eb2
f67d
dc31
10d5
5920
4790
2be8
3053
e0cf
4fa5
1d85
1736
38a5
4651
f157
3a3c
a35b
c9e0
b093
c283
54c2
cb64
085e
6662
5fe6
90e5
1ee3
7ed5
fc64
0b2e
1dfd
2982
3003
bfb7
f6e9
b896
b181
a304
e9be
d2c4
8723
f00c
0890
148d
6f65
71c1
dc86
d19f
484c
3224
ad0a
5c68
9c63
fbb9
40f4
2efd
4eb9
0388
08e6
3bd9
de96
4d44
30c7
9bf1
fb1c
d348
3b88
2e30
5b2d
5947
9748
be85
76ac
9f35
b923
109a
60f7
2968
0741
35b5
6506
8da2
bd66
38be
9c7c
3b0a
5c6a
5af7
9cc3
cf6c
e3f2
15ae
940a
c5a6
6f61
cfe1
e4ac
e560
756d
326a
2702
6739
8c0e
8d39
9d34
9e8a
46c3
a678
0c4e
2c32
88cb
caeb
c472
debc
b40d
0498
28d8
637c
ca24
3051
c063
388b
e076
7ffd
0788
324d
55a7
edad
dc85
0f4e
78e6
e5ef
eabc
e4b1
9b5f
a518
bd0e
04e5
1134
d634
91b6
8cf1
4be2
3339
f115
7e7c
b465
e9fc
7142
acbc
ac44
b6b8
b69d
9a58
e31f
7519
e26d
c217
a560
b269
9ff0
d52d
26d3
28ff
9cff
86de
9371
d75f
ed0a
8868
8ba2
7dc3
64c7
c982
3853
3851
4835
330c
3066
699b
738f
8e44
28f0
c1cf
f193
e358
c48f
30bc
8e09
9e28
7262
f34a
452e
5e8b
57ce
67f0
eff6
03ce
dc2f
56c5
8834
eb5d
e4fa
a2dc
d964
8d7c
0502
c639
dca1
3808
114a
c196
3b58
2ae3
83e6
d7df
479a
1b93
d40a
9233
907f
d54d
b2f8
0dfc
1724
576b
ae49
a9f8
de78
dc9c
382d
462b
5958
970a
6c67
6715
a023
4986
449d
6743
b40a
dc3e
1ce0
c3e5
69f6
9344
a063
e348
aa1d
92c3
4008
f5ae
3895
9f7c
5aff
b9d7
222c
70b2
a569
6bb7
cffe
9286
a425
bf2d
4617
5f19
48c8
48ca
d0b0
1ff1
f21f
c4c8
24f0
8e45
9890
fcb3
88be
4f3d
c578
70d2
3042
ae15
6a67
dc1c
9a11
c4d0
cd0c
5b09
a06d
4b4b
ae7d
126b
11c9
b834
8f87
bc4a
fc53
c8c9
53d0
801f
8de6
646c
0c6e
53fc
2b68
ae83
c5a4
03e8
31ac
cf8a
3be6
3f87
5f81
33b9
d30a
9554
afae
30c4
f014
b736
c9fc
387a
384e
7617
ea46
fa9a
b4d0
d208
707f
c03e
e03d
ad35
cef2
f48d
6f71
5c5c
939c
19b9
42e9
0b1a
d0cc
44c7
a410
eec1
f6a5
38d5
e15b
e5d6
1c60
e24d
38bf
2132
e5d5
2a58
83d8
57b8
ce46
6e72
e5fb
d9a2
3019
dff0
dcd8
1f4a
e6a3
76e4
3a7e
ba1f
b39c
8279
6437
dac1
31c6
6606
cf74
b194
afef
883c
f8e7
d059
6c6c
c533
1dcc
3d3d
bd9f
0892
c630
dca3
b893
b6b4
d8c1
b1ab
bc13
48af
9ae4
390a
eb54
07ed
be23
926b
a764
d3c8
e117
b698
e6d2
96e0
76c6
18a9
51af
5186
17d4
670a
6e0a
3014
0ebd
5524
a769
6c7a
9158
ec7e
e7ed
a557
c251
a3ed
a25d
0b6d
5465
dc82
86a7
6896
a669
bcd1
c84a
2fe2
e552
ea32
395c
d3b0
aee4
e5c9
c03c
6516
981e
19f0
1d38
652f
ce5b
6cdb
f18f
c8c5
f0bf
d9e9
b990
22bc
e2bc
7063
90f9
8b3c
eaf7
2ec1
524f
de22
31ff
9629
760a
c156
782b
ea08
b27f
a2da
9291
170d
a066
7c67
9934
4e1b
300c
6d74
87ae
93a2
f42d
08aa
e8bc
1642
2cf3
ec93
c3bd
d269
d585
e40e
4c06
8dad
cb68
bf77
28ac
dc7b
38cc
7c28
7c55
f0e9
caef
9ada
22eb
7bd7
5b79
d4f5
e675
9152
3fd2
ef13
2a43
d3de
b9c6
f4ac
89e1
ad81
3054
d0e4
d36e
9b44
7a1d
192d
cff6
c55e
38d6
a62a
f8a6
4834
ea4d
f2dd
756f
75c6
905b
f791
3369
55ce
7b22
82a7
28ad
ac0a
b65a
7c5a
7f8a
43d7
a072
22cd
60a9
1bcc
2727
5e79
8bc1
e57d
e2a1
38d3
1f06
9c53
561a
7c73
ea29
2411
1353
7955
42d0
0720
fe1a
40a7
3b17
36f9
47c8
4f54
4f5f
e4b3
8bd6
594b
6dfc
7dab
8efe
c9ce
0512
1822
d854
ca90
ca3e
1095
ec68
6e41
df1d
939a
8cd3
f848
c2df
c50a
dd43
62f7
30fc
4b97
9241
dcbc
dce0
5fd8
2149
6ae9
6474
b35a
eb9f
07e5
bde4
3ed2
7092
83f4
9867
4d1f
642d
79f8
086e
96a1
fc3b
fa52
a497
0e31
d5a5
ed3c
bf82
1f29
161b
6c9e
88e1
ecdf
1056
84d1
9bc6
2dd7
3074
5347
85f7
2bc5
3871
bc29
c85e
48ac
695e
4792
454e
ae6e
b3fe
e00a
8fb4
dad8
d457
60b2
d712
55f1
7d0d
97c5
b786
b6f8
288b
f611
ac1c
0f06
d8ae
3a28
c473
fba2
2ea7
583b
18e7
5ab5
aa7a
f30f
82b2
b9c5
dc34
3959
44dc
29d6
a720
e0ff
6568
ed13
a08f
1e6b
1742
c241
bf78
612e
afd4
df1b
f10e
5f04
7f95
f84e
f8c7
f8a3
eadf
49d3
de98
7d54
6d4c
b93f
e0c2
c44f
82a3
e8d7
11e4
88ec
1aee
c3be
40d9
6d66
a26a
8539
bf0f
dc1d
6675
8ce3
a1c6
a14a
3953
74d9
b01e
8bf0
db88
49f5
4902
6d62
b727
d797
dcda
dc4a
cf03
d191
2f76
f35f
6d03
640a
ae68
8008
c57d
e1cb
a628
bcb0
84d5
1749
498f
7406
03b8
5c32
bcba
cae0
6490
c3e2
5294
927d
c0ef
fe19
6114
85c1
1cc9
1e3b
792b
8b6b
ae8a
feca
2696
5c3c
5cb7
d2b3
c773
15db
dba8
c0c1
b512
24fd
35a3
5ef2
6d7d
ed79
ea0f
04e2
e864
58ba
9178
3f75
3a30
7a54
cdac
0904
90ed
27c3
47b5
4245
7975
a502
a707
6277
fdaf
be08
3093
c2c9
79ae
6286
cdca
d11c
1c0f
2b9d
7327
c6f8
6f90
38f4
9c22
6893
df76
aa4a
24b1
5dde
6462
5e89
e217
b160
2ff8
c674
9cd0
5848
f83f
242c
8ee3
89a7
5e33
e74e
035d
056d
2894
fc17
5f8a
d5d8
d56d
152e
b00f
96e6
966d
7606
5c54
88e6
e5de
bab6
b30a
820a
b7d4
b7e2
30e7
f887
151b
1b0b
6aa4
b42b
b1f2
ce36
e7c3
08d2
98e4
e1e6
9cee
4f18
f8ad
b45b
320a
addb
5de4
5285
f07a
9536
dd46
99ae
0718
32f0
39c9
6b6d
08b2
9cdc
31c7
661e
963f
d8af
f1d1
4ae7
ba30
7a8f
b992
94be
47ea
9b58
40d5
cb1f
8bf3
caf2
90fb
1e55
2e99
3738
a763
d5ed
dcec
36eb
41e2
82ea
90b1
8ddb
6058
f0ce
7cc8
1723
2d74
3e7f
39cd
6e32
aa89
0896
71d3
38dd
8804
4821
7479
b97c
150a
2de1
3160
c077
803e
9806
04f2
6fb2
ac2c
e1ef
9caa
9c82
b120
b18b
780a
88a3
47e2
db71
3ee7
8518
e9ae
8ff6
ad9e
b00a
9cd4
0b5c
88dd
0de6
e3df
8299
49ff
2dd1
07e2
3869
7049
f815
9b49
dd4d
5d62
b5bd
cd92
b605
dfb3
8c9b
79e3
35e8
ae64
6936
7c65
3fa5
35f9
e447
4eaa
95a2
ac47
dc8f
1c7f
c131
d17a
dbe4
90e3
35f4
4a17
6c0e
dd2b
05b8
04dd
710a
b858
66b7
5f82
a178
e428
6367
4b41
b28a
902a
1522
08d9
1463
9cf2
889a
4a47
2a48
5b5d
1bd7
5eda
4544
3211
95c2
291f
6805
ad66
a48e
bd3d
d322
d764
ea65
e707
08f1
051a
18c1
e520
2481
d7e5
c703
cb0a
4af1
75a6
c146
5632
783b
93b4
7371
7a1f
1018
dbbb
ad19
ab3e
477e
08ec
0586
11a6
8624
8fc9
7f0d
51e0
d308
c2cc
b5de
1dff
b4f1
db46
3e62
49a7
3748
a927
6834
b6a6
c18c
2cdb
4c0a
ba93
c316
d27a
45ac
c793
fb08
2776
756e
271c
a01f
cd46
c9ae
4e7d
ab6a
ae8e
dd6a
e244
dc8a
463d
11c2
ccd6
d6c1
9159
105f
657a
d952
c2dd
e2e0
82c6
2e0a
108c
e565
12e3
7169
ac08
e1fa
e194
9c12
112f
91ba
af2e
e203
8b53
30d2
3ec6
d862
73f7
638c
b3c8
cf7a
d8d7
3357
e324
f016
248a
9c0b
0375
28d6
dce7
3859
fc15
5f41
7305
e357
17d9
87eb
fde8
0b4f
45fd
8b0e
8241
08fe
e8f6
98d6
9c7f
36d2
6c17
b1cf
9122
a8ee
8874
e57a
c42f
7279
ade6
5d98
3ed1
c11d
c08f
3927
94a2
9a87
1179
0f44
7c33
bc8a
ecd3
74c6
5278
c90a
599e
d7ae
e806
088e
dc2e
1fb4
8a34
dd58
f08a
e5a1
3047
886c
9919
a963
85c5
57a8
75ad
8749
38a4
11d5
bca8
3a7d
1a6f
32b8
6e04
edc6
f909
6fc1
11a3
11c1
af0d
334d
e077
b2ca
4d9d
c642
0f5c
caea
4a86
30c6
3d5a
7032
d403
65a6
9599
a5a9
eda1
d6ba
f135
a1c4
cabc
8ae2
64e0
0ed3
74c8
3549
e33c
dc4f
1120
cc0a
561b
aa4b
432f
d7dd
55b1
0dc5
f036
f28e
5723
6eca
be3e
28ee
dc20
3894
b1ae
7837
9f2c
f0ee
6591
a95e
5504
6eef
c23f
a0ac
d4c9
1d22
1802
5b99
ad79
aaa4
e395
e410
66a5
0db8
74af
a3d2
a9ed
3046
a0f1
b548
1966
892d
a922
d2a2
9cfc
4692
f1b2
c8ea
9a88
d2ee
99b4
27db
8934
30c3
a08a
d097
3311
4003
b16a
c643
58d0
2129
da3e
25ef
c5f6
95e9
9d0a
3061
33f2
5b31
e36d
e968
6786
dc08
5308
b2d5
a778
1b71
6e6d
7967
ed15
4c60
0ece
c3ad
c3c3
e00e
1237
04d5
268d
28e9
389c
38e0
1f39
6830
3f22
f116
7f12
470a
ce71
9dde
ee0a
6960
a0a6
3005
738c
a31e
bfae
38ef
6304
735d
7ad9
388a
eb11
4361
ea12
e15d
1f8d
36e2
6178
4105
6ad5
fa24
5bde
4deb
9e1f
5d4f
8b39
7a15
3ba3
0707
1d23
380e
a00e
c010
ce2d
98db
8fea
d6b5
0f0a
5685
747f
b3cc
53ac
b2e4
d573
5e95
be0e
ed34
c6de
38b8
e15a
21ab
aed6
3018
90c2
4112
7dc5
53f1
4e47
47cc
941e
b9f0
ed93
dc3d
384f
7f85
9f41
4ae4
1a24
e377
22e0
5258
6463
c532
a09a
a086
9e17
1d18
806e
2e9d
9007
ee7b
6fe1
7192
364f
1175
a259
7042
4536
7538
ebb1
bcc7
bd3b
e141
e5e6
4573
579a
7dde
f0c9
6dcf
951a
8bf4
a51a
3e3b
3e5b
4002
622e
6769
e3a1
e1eb
9c90
cca4
5697
2c16
8823
1a51
5ee9
f03a
8788
9ac8
cd5d
e49e
e229
711b
666c
9618
c182
af9c
a8ae
930a
2f88
5746
e5a6
8dcc
2bfe
aeee
d6f6
c60d
0f97
10d3
9ade
d2d0
a4d4
9075
9918
cba8
5941
d31e
0420
719d
3858
9666
ea5a
9b73
37c6
b4fd
a93f
236e
858f
6e0d
b748
ce5a
e7ca
04ff
e1b4
3bdb
78d7
bc7c
1aea
ba52
a55c
90e4
a0be
321b
2f63
d4c4
752b
dd31
04c7
9c98
d108
aa41
64db
b9d6
b5ec
bee7
e5f3
4d41
a0c2
e34d
6ead
c2ae
dc26
bc7a
dfa2
c160
15a6
9e47
e8be
ac36
1107
8fde
bc78
1a94
74b6
a35a
a3e9
52ea
85bc
30d8
6402
a049
e28f
a017
4960
0457
38b1
1fb3
46cf
11ef
6679
1cee
7853
f0d3
53de
e58b
5e5c
5763
a011
91ac
43d8
62b6
97e1
c5fa
abd8
bede
8b4f
1d68
952f
6f3a
9cf5
310d
7c4d
9f8d
a1e0
7304
3304
4ff8
ab46
3e6c
601e
3e3c
39c1
e38c
7198
9c8a
fc5d
e0f0
d5c8
c1fe
0d17
cd2e
054a
b6a7
18e3
612c
c14a
560a
d9de
895c
9494
4253
cd5f
5eaf
c934
850e
a55b
7195
28b6
f683
6617
c2d4
b4dd
7726
323f
3816
dd12
9097
5dcc
eccf
4d1c
2b25
2bc8
c2a3
d807
04b3
71ff
b6bc
bc2a
fc11
5f7a
1ad1
2a46
5757
adba
9292
2ed0
fb58
9d71
e2f2
9410
e524
0f8c
f823
a3e1
a793
a0df
de06
493b
7402
d4ae
28ca
c679
b630
662d
2cb2
f0bb
b5d4
2be4
60d4
f043
c53f
ab4a
544f
a39e
aa6b
3f0f
b9ba
1991
6d6e
7d49
0e2a
2bc4
e24f
6f87
38fd
1f0a
58e9
cce4
6c79
5c5e
afe1
d791
72d9
d20a
849c
c2cb
90fe
3712
6ffd
1728
a9f2
dcd2
38c4
bc36
ea5e
ab76
9551
d0ed
b935
2e25
ad68
f5aa
12d3
04ac
dc56
dcaa
8fb8
c139
aae0
89e6
b226
fbec
4dd4
696a
d34f
7af3
e871
389d
9ce6
3b77
a8dc
4c1c
82e3
75dd
f06c
8e15
a047
bd68
eb9b
f5a9
dc9b
a651
d60e
bc26
5f1f
4822
a355
d776
8293
6e02
1d71
2d60
fccb
ddc1
b461
9862
15a8
1383
490c
8a0f
dc0f
28a8
1cb6
b1d0
f13d
e55f
847c
84dd
c99c
ed04
6d4d
8af2
1e99
7736
bd0d
080c
1616
b648
7836
3f8b
f128
b9e8
c75a
a76f
d55a
3064
d81c
07a7
4430
7a0d
38da
a6ca
d693
c1c1
2caa
f1ee
8c56
f877
e504
330a
fa43
b2d8
b2b7
4291
dbef
ab78
4ed1
a230
433c
777d
0485
9ca5
5855
8604
e628
78ab
21b6
d3ee
d9ac
b471
2293
5d21
dc65
8ffd
328c
0cc2
47a1
5df1
fec1
c65d
0b7a
0b7b
6125
f05b
dab6
7491
75ec
9dd4
c0ed
7e93
dc6d
f03c
a081
904c
276b
28eb
9c5a
11cb
b660
a8e9
a3ac
fb04
5be8
e01f
9d1e
d885
13c3
3809
d489
e417
98ce
5f7b
88b5
f8d5
f831
ba57
5520
ce07
5edf
a0b8
f0a2
3017
5dca
8b36
49a6
ec6a
5fa5
3e56
4e37
5ac8
a3c8
be4c
f706
b8ac
6324
ea76
8aea
d3d2
53d3
9438
2ede
556f
5b5b
fe14
c013
a0f0
5788
6b75
78fc
876c
dce2
16b6
2c31
a848
4fe2
9bf4
4367
e50b
6f86
86b4
8cfa
ca54
5b58
171a
dbf8
9c41
11df
f890
9fed
2a08
e3bb
e338
b4bf
e498
79bf
97c6
6d72
879c
875b
828a
a036
dafd
d4ce
cbb1
80cd
136a
1df3
2dae
6b62
8e33
da02
6f9c
dc47
d8f6
247e
32b1
cedf
2b07
bd71
e5f2
1867
f265
b579
cd9c
f0a8
1295
c6b0
e1b5
b89a
6692
6c71
5cd5
5c2a
91ea
9f06
8ab9
92e7
0908
be20
bd15
3022
6918
0762
2315
de2c
0861
05e2
71a8
11e7
b85a
f852
a109
d9d8
e37b
bde0
1e12
39a9
841c
dc24
3845
1c90
c87c
48a4
6302
cae9
b4b8
ade7
1e07
6468
5e82
1344
2532
5e8c
5505
ed9e
04fd
28dc
6878
b1b6
48cf
51d5
aad9
a496
4b6f
b71e
6b4b
9ba6
85bd
c3a8
e8ee
bfb6
bf1a
f686
3857
e1e5
e61e
d1cd
78a7
5a48
fa91
87e8
7eeb
1919
134d
7ef3
8327
c736
c4f4
039d
089c
acbf
dc88
385b
5647
df11
37f6
5dc3
e096
2566
2dc4
8023
876d
e52a
eda5
f1f0
11d8
8656
c1e2
b1ac
9add
ba8f
2477
d267
24c2
7882
25fc
ae8f
e206
8618
b61a
c823
ca47
c97f
6eda
ae20
19c9
b098
1915
b5ca
4b3c
ad74
ba8a
de37
d789
de4a
1823
b152
88cc
15ba
7b53
f0f8
a544
9402
1e0d
843d
c42b
de3c
0383
08a5
acf6
1fce
467a
18eb
8c33
c8d1
73df
6491
35ec
09e4
f2af
f25e
226e
881a
586d
0cc5
41f8
6a8b
ae42
be22
cb63
de84
d20c
0349
f67a
3878
e108
46de
1ca4
c188
81c8
890a
c7e6
b5b1
f082
6b1a
2412
32c8
6763
79f5
86fa
8e5b
0891
31bc
7ca6
5ab1
c2d2
b4bc
a4da
3058
dcc7
90c7
8812
159e
c31e
c73b
d783
dd9f
db22
9cf1
11b5
6649
c4f6
32b3
15d4
49b4
370a
6267
cd12
2417
9768
9e3b
ada4
ae4c
c73a
e89a
28d4
9c34
5c92
91a8
a834
7f08
4fb1
d7b4
cdea
f55c
375a
d528
0773
3e1d
de1c
e46d
6906
ee0d
08b4
e831
288c
ac8e
dc55
4f53
1ac6
39ed
c376
22b4
52a6
d558
307d
3260
598a
7575
76c7
1832
c122
de6b
8c64
b91e
bcc8
aded
d749
e905
dc7d
86ef
6c84
bc0a
519c
c208
e2bd
b223
79e7
525c
ede0
e0b6
1af5
95c1
4d3e
6bcd
7da4
bd2f
cece
041f
04e9
ac1f
0cdd
3f82
63df
e5e9
ea7d
e2d9
b25d
a920
9957
f758
e28d
63f3
240e
6b2b
c638
183c
cf3c
5f2a
2a88
69d2
7278
f9bc
9dd6
8ff7
6d49
a53c
5f68
83f2
180d
4d29
576a
798a
08ee
088a
1f81
0caa
d9d7
4371
29df
bdb8
f0c2
628d
ce66
83f5
2aad
420e
7315
c52d
28c6
dcb7
98ad
3626
a668
0f72
b9e6
44d8
c53d
4b11
7f67
454c
6afa
4ac8
bece
d5a8
e6f5
03b3
0416
7667
2c4c
8c11
f827
ba59
35f5
fbc1
04fc
3123
2f86
e70a
e796
4cdf
3904
d2b0
f09a
7d1f
e032
2d8f
57a5
be4e
b38a
d00a
055a
d175
9f16
b358
4491
c5af
3043
6d6c
1bb9
6e1f
1ccf
deb5
04f8
38f8
668f
c1fa
3fd1
f14a
9f5c
efc3
63e9
e5ee
6a7f
17c6
d5ac
d3fc
3024
9e14
308b
c36b
0738
1efc
a3ad
f74f
ac96
e132
1c28
bc57
f8ae
da41
d321
658d
0e65
693a
098a
0b2a
1df9
8bc4
d889
dc2b
9cb6
b8c6
0fba
7c49
9abd
e29f
f36f
bd20
3013
63fe
c4cd
734b
2164
b9fe
b738
04b7
c66a
dc71
160a
118b
86a9
765a
d6ae
1c95
8193
ea4f
7041
3583
c0fd
ebfe
5c0f
942e
d50d
28a6
dc33
3662
2c93
fcd9
fc58
4893
e5eb
69ac
2be3
fe94
0da9
d5c4
73f5
1b0d
4bc3
9737
ae5c
da6a
f6f1
8f10
d8c6
6ad6
47d0
97d5
4032
4543
e048
e715
f51b
72c4
3ff6
7b68
9dfc
b6fd
ce73
cef0
e49b
fd93
128c
c6ba
dcfb
684e
68ad
83d7
597c
97da
35e9
d520
0e08
7ed4
4e08
ee6b
d0f0
3566
dc92
1fe1
9c8f
86d2
9612
f0e5
f0d1
db93
3523
6dd9
e5cb
653f
526b
f9a9
c402
0d7a
c002
f98b
12d6
dc16
38d1
e17d
9683
8f83
0f9d
c1b3
5c2e
af38
f80a
f893
c49f
1b5c
4b12
b09c
5d4b
494c
84fc
91fd
dea6
46da
8f7b
6c30
3a08
da33
62b7
616a
a077
f86b
f01d
471f
4da9
04b6
0b0f
86b8
a6d7
96c3
0f85
5c7b
41a9
819e
aa9b
3203
8b04
3e12
6d44
8047
3d2e
53c4
6509
6723
cda6
0879
1247
0460
71ed
3898
1f31
a8f6
d9dc
32b4
9488
25e4
b753
b860
ca17
1e65
4777
5775
03cb
1f10
9c08
46d6
163b
e5d4
e36f
305a
e54c
a07f
381c
d7cc
dd35
eac9
f24e
0907
6fa6
36d6
da78
b2d1
57e4
3090
302d
9408
b235
7710
902b
5e97
838a
de51
26a1
28d5
3843
76bf
ccac
9192
e704
f8b7
e558
2a2d
e2b9
d7e2
3593
35b3
301a
7905
7206
e8fa
717e
36d1
d8eb
df18
fc35
810a
81b8
6338
c252
7974
2d02
ded2
d90f
1e16
a36a
523a
256d
1b9b
aea3
c57e
e241
147a
3899
a6da
ecaf
6251
7790
6baf
79a8
faf7
0b34
7e60
f4c7
3ef4
4ac5
b763
03a9
f6ab
dc94
389f
3842
11ae
6631
cc72
ec2f
5adb
4aea
42e2
8e9a
70c9
3087
9b47
cb86
e449
1a8a
46f1
5313
9e88
08e4
c688
8fd6
7832
8a38
eb5b
a5bb
e30a
1e98
e56a
f039
8048
5e86
5eca
ae2b
26d1
f61f
1fc4
96bc
7827
df2a
e2d2
e0e4
3da7
3805
12a8
3849
d66d
f10a
4c8c
c29a
5704
5cce
c54d
61f0
7e57
b7f1
b98e
460a
e64b
1c96
6ce3
51e9
1a5a
6ad7
b054
1e13
4044
15f1
3729
ae7f
abc5
36bf
cc5a
9308
4f4e
4874
ef35
64b0
89ed
d259
1bff
2b49
704d
d2f5
4bf8
8811
820f
9924
a205
c012
c6dd
c109
c8c8
e436
a45c
c572
b526
2b91
1e9f
1563
921d
24cf
1927
7a65
8e3c
ad2e
fe2a
f6cd
e19f
369a
a60a
4854
da4c
da3d
4ae6
c3d0
e452
7e0a
b934
d910
d0f5
3a8a
2891
28f3
1665
e6e8
56c7
9b20
fede
ed09
bc6a
628e
478d
8e7a
ae78
b597
e198
e644
1cd4
41dd
fc4b
d37e
3521
6d0a
0d43
2f6a
9fad
3161
f3f4
5e0b
aac7
08f5
e866
1fde
668b
cfcd
a87c
4f1e
ec4f
c8ca
1a55
2a2b
19e4
a2ea
4721
c058
f0a6
6717
9017
a284
7805
0885
46c9
11ad
c1b7
9a7c
8ae7
e9e8
4904
f7ac
8d5a
f01a
5b47
eb4b
a11e
4e43
e7cc
047c
04c3
04f0
e571
39e8
725b
4275
9edb
c23e
2d65
904f
4566
2506
42c8
5da7
652e
bd2a
cb0e
cacf
ed3f
9cb0
36ae
885c
5a3d
d35d
abe6
febb
b0c6
b818
a07c
a8f2
3b69
5dfd
be32
c6d4
dcd4
660a
e6af
1ae4
f30b
19bc
a2e8
29e5
9958
5edc
e0f5
d58d
32c3
0e39
570f
ed69
26c7
761b
8fc5
915b
9a2c
7a4f
e43a
6772
ede5
6868
157b
de56
f313
0827
04cc
dc87
862c
88d2
43e1
72be
a4b1
add4
9e18
d5f3
2369
e01e
b16c
05fe
12cd
acad
9cd6
9c85
11e8
1c76
61dc
af2c
fc5c
ca2e
4791
259a
6de2
6edd
a07d
b264
986d
476c
6784
7763
75a9
d4f9
acb5
3828
46d7
6c4a
efe5
a146
abdc
d55c
9162
25ab
42ab
0395
088b
dc8b
185a
ef11
da2e
b37b
99bc
d58b
30ad
7ff0
e595
05c6
c61a
3653
0f47
3f88
f05a
9a32
6926
a3e3
19dc
c23c
9cc1
951e
cf66
95f5
0eb0
3dbd
47f0
b9c7
c70d
28ea
f614
3897
382b
1f03
b6a3
562c
afda
1a57
c4e4
a49a
84d2
a266
18f9
9546
954a
9b83
ce32
2899
28ed
dc54
9c26
4693
3698
d6b9
afc7
a8a2
93d4
335f
8a56
a56f
8591
90d4
40e4
40ec
9382
ccc1
6074
1367
2b83
a3f8
2ffd
172c
2ec3
2483
9a8b
aa66
d5a1
03a6
71f2
df1f
e581
e592
fae4
8463
c016
3817
b3f5
7a83
9229
0476
2697
6f51
6f99
38d0
b854
b8bc
66d3
8a0a
a3f6
4356
7979
1554
7466
301c
c360
87c9
d3a7
f415
12ee
3841
464f
0b5b
8872
8ce2
4f96
faed
2ae2
e49c
59e5
f5e6
b0dc
b0de
ca1e
9062
c0c5
9812
6ea5
670c
8d76
b414
dc0d
eb62
0833
ac12
9c5c
c183
78b4
af19
f843
1a53
22ef
32b5
d2d4
a49c
990a
934a
4510
31f4
e21c
c46e
5563
2484
a48c
266d
acf8
8f1b
91e0
82dd
7ee9
40d6
c06b
b447
19f9
5707
b55d
ea05
e876
3b7b
bc47
a8cf
63dc
63da
c35a
7ad6
8b5f
c0e3
deaf
b71c
c0ac
d46c
85c2
574c
125f
38b0
389e
960a
d6b8
b173
a8b3
d3e5
c456
b457
ceb4
3dea
3ed7
903d
1c66
f019
a2f9
401d
441d
ea69
e738
e702
feb9
dc79
dca4
c1e4
4fe3
3a94
abea
2bd3
9ee6
a732
c56c
cb3b
f4ce
42cf
27c1
4206
0803
f678
98f5
e19d
d6e6
bc84
d411
9b5b
77df
2bf2
5ff0
9d4e
cba2
2eca
55f8
03c8
4607
8f07
91e6
3a2c
6a3a
b336
e2b0
4446
19e0
8d28
1ffd
8bfc
65cf
070b
7b7e
8a68
8bc8
05f5
c605
cf84
7856
3a7f
5ad9
6957
54ff
f3b1
09c6
4b23
1161
1e86
4eb7
64aa
724f
be8c
decb
bf87
4ab1
8ad2
adef
cd21
9d73
6969
1349
a3fe
ab68
b40c
6f54
1181
8fcd
4171
675a
7937
3e32
0483
718b
e1e3
9cb7
31b5
a69a
96b9
76ba
563f
415e
4f16
6a98
c326
4376
15eb
9223
aeef
cb12
dd47
292c
3e2b
3a8e
47f8
457d
6e3f
86f6
9b2b
f383
9c2e
68d1
a652
ceb1
dc6b
afac
0f66
cb18
ae65
6b3e
1a65
23a8
97c2
c79e
c327
bf1c
6116
5c18
9fee
3a3e
aaea
8a4f
64b7
d5ec
be10
3041
f563
411a
651d
a96a
7da7
0887
71c9
ac42
acfd
385a
383b
46c1
563e
2c91
88c6
83ed
a2d6
2b5d
7052
8dc8
a034
2768
95a4
bd7e
b9f4
122a
ac81
c609
9cb2
91ce
885a
4f98
39e9
82bd
49ed
b7bf
a095
6bf9
9161
0b69
08c3
61bf
f124
51d4
aa4f
c391
ebd6
72bb
a4ea
ad5f
fbe2
6e75
0c68
f029
c0f0
d53c
da15
6b89
850c
ce4e
fd2a
bf95
38b2
bc7d
48d7
303e
62b4
c5d5
85ff
a054
6b14
c71d
8b3e
5a8d
849e
a1fc
dcbd
9ceb
6128
df0d
3fb4
5f9e
93e2
aad4
d4bc
70ba
15f3
a88c
300b
51f2
790e
9749
e29e
71f4
3896
1102
117a
680a
cf1b
63b7
8ad0
3956
a55f
6252
dbea
09e0
30b9
b058
4b15
d21f
9bfc
6afc
4ba9
3768
9011
9d5e
28f2
8632
7c3b
2c12
5fc4
f82c
aa3f
249a
62ba
4be1
4b73
f03d
c213
b044
352d
be2b
fe74
16cf
114e
1cb5
5c44
93d0
cad7
ea21
ba74
7a72
535d
7254
9b96
6b28
491b
c542
540e
d022
5b82
4925
edbe
fe2e
08ef
05c2
04cf
bfce
c63c
af87
cae8
a5eb
d453
9424
1908
77d0
0e9f
7057
5e1e
5e5d
b56d
1368
9ba5
400f
b2c8
86be
d804
0c57
3a41
303d
d4b0
b472
4971
db04
cbe6
4d31
6775
c7c7
f70f
1228
bf02
9846
e1b6
7661
7cb6
535e
b436
2224
3884
a03d
8234
90fd
c517
dbf3
239d
9da9
ad64
b2a2
1234
b651
7649
0c8d
bc92
ef41
6a36
e3b2
1756
44b7
0974
a7d6
95e5
5bee
7fff
d111
aec8
dd5b
26ac
dca8
38f3
1f2d
6c7c
d1ad
f14e
8808
8851
4ab4
15e9
7791
2ee3
d574
786d
fb33
ed18
c2ca
f239
aba9
62f0
2ba1
92f3
859d
beb7
cd62
d43e
718a
3847
9c96
cf20
787e
8c52
23b4
22b7
842c
52dc
b5ac
705d
a0d9
a0e9
c024
5206
b760
f48e
036a
ca4a
539f
6776
a7db
bd5f
c538
f71e
9094
1bbf
3a67
6d2c
8b2b
900b
0441
2693
c6ae
9893
7c52
6255
a96f
a9d3
9503
8ee4
403d
c234
e467
f2ca
099d
89f5
da69
d42d
bf4d
9cbd
31b3
d1a6
a838
ef20
24d2
c06f
ee26
a56d
bfa5
ac48
c8bd
5aaf
74ac
c27e
7539
ee18
6df7
7b0e
7761
a706
a7cf
03bb
2882
38bc
b63e
5f0c
7f25
4f20
1a59
e2da
dbdd
a7af
4bab
09fc
55bd
67f5
a7a3
e73e
dcb5
b15d
9183
5fb4
5f0d
21d2
ef59
7307
aa5e
6946
4793
9790
35e4
87da
c2fe
cbba
5f69
911e
6225
777e
9003
f7c3
0886
dcad
8fbd
78c7
3fe3
88b2
ecfa
73da
1a38
8aac
23b5
82d8
e954
2ed8
8578
3092
0f63
693c
958c
67c2
7e74
9d2b
c7fe
08e1
7219
11ce
78db
91cf
4f8c
6294
c28c
b34b
436e
4244
578f
61fd
f314
71d6
715c
ac41
860a
a68f
0cd7
2cf8
88ae
caec
c31f
830a
450a
15fa
4bff
a0e2
7077
c04d
44a1
6d2f
c76e
2887
c68f
38f0
1fc2
11da
9673
8f08
cc44
3fe4
ecdb
8195
f808
a3c6
1903
7708
b7ec
c0e4
80b5
6535
e912
ab4e
33c7
380f
b9fb
e962
71e5
c615
e6ba
fa2d
69e3
6704
fb74
4bb9
f030
de64
a068
8dc6
2d45
0715
9d16
6d3e
88fc
14fc
38b9
389b
1f53
66cf
2c1a
8830
f899
e57f
a422
425b
b50a
5ee7
c0d4
9073
e468
b212
f2cb
2962
5acb
be27
b7be
b38d
083f
28df
1182
31e3
c1cc
5fc2
f8be
0dba
a5e4
e4b7
527d
42ac
edea
386b
254c
15f5
6e1b
6e3a
dd25
4626
1186
8f23
d4e6
43e8
82be
4773
1eeb
8de2
454b
388c
f811
5e6b
a7c2
cef1
e8e5
0b75
9624
18ac
5665
4a9e
c359
53e8
e9e4
2eaf
f596
3e10
a084
621f
9f67
4c65
7bb7
47a4
a72b
08fd
0572
9892
58c6
a69e
fc24
eb52
8e98
7815
22c1
7e1e
8245
bd29
ca64
dbc2
6f4d
f673
dc9d
3193
1851
c1eb
4192
239a
6908
d4ee
7297
9eac
a73c
8b14
c027
d7a8
f646
6c33
91aa
fc1f
9f99
aab7
ba9a
590a
c508
2778
306a
9168
278a
5d8c
8b9b
8eca
922b
c73f
c74f
dc27
16dd
31a9
ccd8
91d6
5190
0dd4
2338
22ec
57b9
8b23
9908
6b7f
a044
1730
3249
792f
c7a9
1242
e860
1f1c
0cef
b146
21b3
97ff
f27d
4ed2
e584
8af8
8bbd
cf51
d89d
b182
9393
ef24
a1d5
47b4
d57c
fe1e
f28c
bc60
f88a
30fe
1541
1d93
1722
d5aa
28b1
dca2
36e3
1183
b1ad
7cd5
ec2e
b2e7
6ee7
f0c1
823b
b91d
c9ad
1d5d
272e
22aa
4415
be34
cd23
cd61
08bc
7104
7199
e153
11b8
68ee
c13e
6ced
af06
7fc4
f891
09ff
2db4
8dca
cb4a
c26d
0d97
2efb
6777
6383
b7c2
deae
d7a4
e22b
e8c3
2890
dc22
9627
9f9f
efcb
230a
d751
e459
f20a
af68
271f
8b8c
a01d
906c
8884
45f0
180c
729e
83cf
1129
31ef
961f
cf19
9f9b
cab6
badd
8323
d220
b578
d5e6
aebf
deb3
6231
4542
e07d
7288
53f8
1725
24ae
46f6
c7ad
ddfc
61b7
41c1
cddc
f5ff
ce98
70db
9c68
4b89
3d87
e694
b15e
ba4b
c3ff
695c
247b
fb93
fbe6
deac
dede
e058
4e71
7dce
f402
4da4
5d7b
8d38
c009
1f0f
1657
e642
2c3c
78a4
88e4
8877
efd6
fa9e
22b8
724a
0751
6eac
a0f6
8eb1
89a4
1d8d
2a6d
4b9b
841a
cd6d
debd
ec0c
e312
e1c9
b610
7c47
8820
ec2a
2182
1ab2
e9d7
b5e2
5ebc
293c
ad43
d8f3
1bc8
eac7
04db
e8b9
8f7c
df41
fa3f
d7bc
f3e9
92df
ab0c
8edb
8d56
a08c
e264
8e69
75fb
580c
7d96
c3a7
fb0d
fda2
58c1
c12b
6c2f
51c8
b97f
d7e4
959a
9de0
bd52
4d02
4efa
5c6e
c2c5
2262
de32
dcd3
dc38
e107
bc33
3f5a
88ad
c8d6
81b3
480a
6453
745d
eb56
a5ff
7299
4973
ced2
aed3
9af1
3344
5af5
823e
096d
198a
30a8
672c
743d
839b
b7f0
d4ad
e249
aca7
c6d7
864d
b8e3
6609
c141
8aba
7497
54d3
7bac
2b7b
a085
a013
e164
d034
d934
0768
39cf
b76a
cbc8
e1f9
03b2
03b5
98a3
116f
5cee
78a2
88d4
88f6
c4ea
22e4
82b1
4752
deb8
adca
bd12
4060
4019
1a61
2b2a
ae5d
de2b
9c18
9aed
dae7
b36f
e253
e2eb
845f
7025
901d
d5f5
15f9
2961
f58d
1a02
2ded
8ef2
cace
2897
98f3
46c4
c147
6c75
7cd9
a83c
69e2
f436
60cf
c0a9
4577
773f
772a
74a8
db64
f635
dcfc
11de
e646
0c71
51d0
920a
cb08
30cc
904a
308e
8368
c46d
2b3b
125b
266f
3609
58ed
b687
91c6
8198
ef18
f0b6
eae0
2324
43e9
a028
3de5
3335
f015
908a
221f
ca1a
158a
9bbb
6d7c
cdf3
cbcd
ee5b
085d
9899
11cd
b15f
53eb
a3e8
4346
ad21
4293
995e
1e10
793e
fb83
4383
41f5
5bcd
85a6
e20c
dc89
9c77
66e7
968c
ca7c
aad0
6790
6bda
957a
8968
0ff8
271a
bdc4
07a8
23c5
4d62
673d
9aad
e008
e525
f660
e699
e781
48b4
4a3b
b3d3
9755
9553
7b73
15ca
19ad
bd49
a345
5269
3b8f
0d1a
27c4
5ef0
e659
c19d
c1a7
64ac
22f6
99d2
995f
47c6
b7d5
2d6c
a212
3e25
39ce
457b
55be
6d88
9907
ae97
a3a3
ba68
e997
0819
7157
8f8c
0ca7
7829
da76
2393
54e5
e2dd
a0e8
a0ec
abb6
488a
152a
3731
6505
aeb7
cb2a
1434
98f4
86e6
662b
6ca7
7c13
88aa
21a4
aa9a
a57a
4dbb
3dba
7965
e0f1
a08b
49a5
92c1
f40d
56f8
7e39
8b6c
c741
e858
c6c4
9646
d6ce
c152
b10e
afd0
9357
f0eb
9aac
c43f
35dc
636a
dcc5
c34a
254a
db4f
72c7
580d
6e86
08f6
b40e
cf0d
3b08
33e5
2321
b476
b45f
22ed
f956
1ebc
a369
9460
c36d
79f4
e9f2
9c3c
8f17
7cd7
bc3f
e773
f87c
22fa
d25a
f99f
3912
91f3
0d92
2e24
5769
dc28
91d8
918c
73e5
c4d7
d2ef
57b3
1993
8be3
9293
b5e7
7e28
4ebf
a06a
a099
cbfe
af60
2a18
e066
a2f3
fb12
956a
0d7e
1809
180e
770e
087f
26b9
6fdc
3624
f824
4cfc
0dd7
4431
15b2
0990
b574
5eeb
4dbc
40e3
d0fa
4111
dd34
fe4a
0509
e8e6
c6e5
dcfe
6618
2c42
af35
f871
ca2a
da2a
4a3a
b3e3
ad0f
9993
e537
3932
f5c7
491e
db4d
6b43
9d3e
0359
2641
d8b8
6caf
3a9c
656f
545c
e32a
79ff
e9ea
fb51
8e28
e818
91f2
3814
5395
5741
529b
96f7
9dae
e9cd
71e2
382f
3825
365f
1191
b60a
18e4
d62e
6c73
b175
91d2
af0f
0d5c
eb9c
e439
1359
1992
a9af
3591
ced6
90d2
5b78
1d08
afa5
19aa
9072
a09e
ad1d
d03c
5787
6d05
6425
9e42
c9f1
d80f
fda4
034b
04d7
71d0
c678
e1e9
9c88
96a4
1c3a
e7eb
3ad6
15ec
7746
2edc
c9b8
cdb4
a0b7
707b
a04a
1bb6
526a
13c7
63a4
9dfb
08a7
d632
d174
0ed6
7b1a
2c66
d268
909c
6afd
d2c5
4ac2
948d
a7f7
f668
c61e
5c42
5ad0
f372
d299
92ed
aedc
dd07
3938
6d64
8ba5
9937
75c1
3d0e
5e41
8802
99f1
c7ae
1457
b8b6
0c72
4c4a
d70a
d228
94ba
77e2
d593
f704
8289
abfb
8862
35cd
d0fb
1363
aa1b
3d60
9d82
c482
d22e
ee7c
28ae
e156
161f
f8c1
7aaf
d4d4
72e9
995b
bd51
40d4
ce17
1b39
228d
a407
599b
972a
b48b
d7a9
debe
143e
6fd4
e85f
f624
989a
685f
e6c7
88b3
1adf
a5d0
22b1
1581
29b9
d596
0791
dee9
7c60
63f1
1783
4768
6df5
873c
86f9
9006
93d7
2193
1ad9
743a
5359
3026
5e19
388f
4afa
7da3
9b05
a5a5
a24d
0817
0862
6f55
1f9b
1143
b83f
d6b6
0ce3
5cac
df06
c3df
92e6
a7e1
0793
6e6b
7266
f5c5
856c
8886
3df1
6313
7ecb
e763
0393
058f
9c03
c13c
da7e
8a35
e45a
32be
8226
92b0
a99f
9b77
2ef6
1bdd
ae09
4469
6069
8404
0d1c
82c8
e50e
14b3
f6ee
3617
b645
8f77
1cf5
2ce0
41ab
21ee
e394
d454
b790
3dd2
4ed7
181e
b9a8
901a
c563
152f
120c
2325
338e
67a8
8eb2
a9fc
deca
7151
acd7
e14c
0f9f
7844
df5a
fc92
f835
1a5c
d7af
a545
2d4f
e287
e345
30fd
7a10
248e
8eae
fd9e
fb63
035b
08b7
4c45
b316
f452
f359
c7d1
15bb
fed4
706a
5c67
3082
c07c
0969
194e
3a60
4a8e
51fd
a92e
0312
8694
4f58
6393
da9c
d3e9
d746
b27a
827d
f074
30a1
f9a8
ed44
157d
692d
8782
c412
e7a8
2ca2
af73
41c6
5f03
6438
c390
b0b9
8b18
2468
ba13
f2fe
2363
1e2b
8dfb
ae2c
28cc
3854
4f86
7a73
c771
fbac
2dd2
bed2
8eea
f53b
4282
cb88
25f8
4807
7807
96f6
d72f
ed6d
f33b
03c1
08b1
38df
11c8
b8be
e652
d1b2
91e4
73fa
7324
64e2
a3d3
a9c6
9754
b5c6
a0de
904e
3b10
2583
2162
2783
2e7b
478f
5d88
e1f2
289e
982a
984b
1131
e708
da0a
a576
1d0f
7043
1c67
b86a
6af5
a81c
9066
3e6d
2b8c
3119
07f4
2e2d
5a67
b247
b72f
ed5b
0344
04ee
bf3e
38b5
115f
969a
6228
877c
bd1f
fb45
7dcf
d812
8027
0777
6df9
922d
e99e
12be
dc15
a63a
7822
88c4
7f2d
3adf
639c
74b7
d375
e228
b2dc
a476
55db
fb53
6567
9096
e71f
1e67
dd9a
dac3
36ad
2c1d
afce
3fdd
a13e
53d2
17d0
35d3
fbde
70d9
5ede
2af5
b0a9
1e62
352e
580f
7d77
73c1
d767
71d9
165a
b198
f8a7
7a58
c2d3
6720
db0a
3708
323d
30c8
ba1e
5cc7
a81f
eb42
b906
f229
289d
dca9
9cec
1139
4fed
c87a
cad2
ba9d
eb0a
c7ff
55e2
c0dc
4467
f024
e09c
88f5
83fe
7b8c
a403
458b
b3ad
0394
267c
98b0
0b71
af9b
2f8f
e7d7
dad3
da47
a3b4
8326
8493
47bc
6b23
cb72
8ed7
d360
82cb
27fc
2d95
355b
dc07
ee33
e98e
ea68
0820
08cf
0883
14f4
4682
8fef
cc94
b1e9
d186
78bf
63c6
63d3
1a90
94b3
cee2
7ee0
be11
6d46
cb4c
c819
a968
248d
87c7
9482
d2a5
d315
f80f
c6b3
dcef
e10f
3103
bc49
ec97
caee
e5df
e59a
a39c
e2ac
f357
d297
17da
350a
77b1
e090
534f
7968
f214
1e18
6283
eafa
1207
7ece
9742
e243
f599
f41c
05b0
05f8
6f05
31b2
2c74
fcbf
f8b3
518c
b958
520a
c96f
b751
ceb8
6d4a
a46a
8074
9285
3a64
cac8
e483
e982
e4ab
124e
bfdc
f18a
a152
72ee
15d2
7751
9523
8eb4
9ebf
3086
a01c
33f7
b514
5faa
d96b
0b66
3d22
33c9
638a
8eb0
71e9
ac46
a6c6
cc93
af96
5ade
4ad3
b357
130c
a0aa
cf61
428f
f3fb
2d2a
3067
4b2c
6385
7e22
9d22
be2a
d484
fda1
3874
668d
6614
1c81
af42
743f
a30c
83ac
d753
a9e0
90ee
879f
309a
8913
0fff
6eb5
7997
74f8
8d67
9247
94f3
cda8
f676
0f08
887f
4f3c
2a86
6498
d9b9
32bd
97b1
277f
d553
fedd
dd56
be1f
44c3
0e3b
5e4a
e383
1464
e82b
b183
3f8e
745a
c3ba
b3da
43d2
9496
975a
b7d8
85b8
5e9c
4dde
dba4
a01b
6064
f234
b8fe
d037
2963
596c
75f2
1506
499e
be4a
cd27
dac5
ee74
04d6
2681
289b
5878
111f
1c7c
56e1
bc5b
f1a6
fc51
ec79
9f14
1a29
c30c
c426
625c
ade0
47af
d5b3
2b5b
1b09
8ba8
b862
1530
2d39
7924
87cc
a78c
f40a
e83a
9c95
2ce7
88bb
647d
c24a
b9bd
d420
8b06
6edc
a059
dee7
e5a8
9086
2d2c
4d0d
8eab
cacc
e50c
710c
1177
7c59
bc72
1abe
22be
a2ba
a7b4
1b79
1e71
f042
1d1f
6af8
8e6b
5719
d030
5df8
6388
ca62
0f2c
7ca8
2f05
e293
1591
adbc
a0ed
e513
a5c8
e0fc
0fa2
b0aa
07c5
2ec4
5797
cec8
c786
eeee
7154
1fb1
cc7e
af32
a82a
88da
69ea
32b9
6771
ad02
ab5b
6e71
7de5
9ee0
c81a
39a7
85c7
3aa2
33cb
6002
79f0
8bc7
a945
c6db
9cef
369e
7c25
d1c7
784b
df78
93e9
8ad6
d7de
95e6
f9e2
3dde
d021
1d14
3ec4
57a9
9948
d1f8
b61f
cfc4
d60a
0f35
5ca7
df8c
a841
7f0c
4fbd
b3e6
e27a
87c6
a0b6
b0b8
0c60
9033
3025
c544
600f
d8f4
d79b
0482
f638
461c
967e
2c79
9f03
4a0a
c420
d455
2b98
87ba
736d
d71d
d3f8
fbb6
a046
d5fc
8535
f88e
c468
c863
7345
bcc9
6bc4
93cb
c425
e007
e8d0
dc83
1135
b6d7
d6d6
1c2c
b1b5
730b
dab4
ebe2
e492
a252
ab5e
5bec
5b9a
903c
c91d
ab31
b5f1
1ac8
23aa
2e78
2335
4aa1
9ef8
abc1
b70c
c906
caa1
66ef
c8dd
f87b
a5e9
c421
9231
781b
74c1
1807
8b24
992f
b429
dacd
fead
05dd
bf53
aca3
3678
7ca7
3b9f
9f31
8a08
7ae6
1381
17ec
9954
2ed7
3d71
7b13
3810
1536
9015
c0f4
a568
8534
f9a1
2a6c
52a5
631e
7322
83c8
056b
bf3c
d624
6143
afb0
d3e1
e486
6796
55b2
fed1
e0d5
eeb1
3931
bd45
40a6
4ff1
4ba8
e02c
13fc
4e24
474e
6802
73ca
ad6b
ad93
fd05
98fa
9caf
d6a1
a85a
81b4
5a47
c492
c44a
b498
c57f
b5e0
95b0
07de
6d45
c537
0f6a
7404
e04c
1dc4
1cc8
4d3a
57a7
6315
d5a3
db6c
da07
12e9
d808
9aec
c36f
249f
43af
67b9
675b
8bd8
8beb
8b5d
5273
2581
5b0a
1e0c
1dd5
7531
3df8
57c4
7b66
999b
93c7
d763
d7a5
d6f8
d725
0351
14a3
f6b6
dcff
dc96
387c
162c
8190
2155
0dd5
aad8
c35b
d9ea
f2c6
2bd5
ded4
dde9
c2c7
221d
3b1e
1913
4e17
82aa
a70c
ed2a
e775
0497
28b4
6877
b67f
b326
b2e8
6774
ade3
3ed5
304b
ce1b
0f62
f231
d936
472b
b49d
035a
037d
bfa9
bfc4
e6b1
0caf
da46
b255
139a
a47c
d04e
308c
308a
1b33
a28c
f535
7ba4
116a
2ec7
41fc
b5a8
e98d
fd0d
38ba
1f95
66d1
9637
cf1d
303c
3993
2396
8352
7957
e90a
9758
35ef
2dd4
4ec6
a53d
b9ab
b07b
5915
d34a
eb48
2bc1
27f1
1f85
6697
c15c
5f1e
8c9a
8a22
e2db
c5c6
6de1
e0da
c719
423e
5732
e70b
083d
265c
c6e6
86dd
0f9a
afe2
41fa
93ea
882f
a1a7
f021
0dea
1a08
ab7a
1b6f
b28e
6bb4
4e45
5a69
f7f0
f674
dc19
982e
1ca3
2fe5
cab2
30fa
828c
48f9
8b1f
f862
4afe
1b45
223b
c07a
15b5
cd60
086d
c60e
3876
0b0c
86cf
b6d3
e684
d684
8c85
4fb8
81d4
7326
8a3f
2a03
e3e2
22b9
62ac
e45e
f55a
9028
d0e1
f088
0d68
236c
5b8d
4407
3e7c
6d75
62a9
ca0d
c313
cac1
c33a
467e
46c8
7668
bc8c
aab8
e474
84fa
9576
4d5f
a03a
65cb
5dcb
d0f4
2165
2a0e
2b24
5d84
8987
900e
b78c
e002
e3ca
e6fe
dc52
860d
5ca8
3f4f
f129
9f0b
aa16
a0b4
181f
b030
f51d
cb84
8d95
994e
a2a8
b49e
bf2e
863b
866c
0c78
b18f
9a2d
d324
e959
49ef
5e98
40ca
fa1d
9074
9387
e463
a9aa
c81c
f538
79cf
e4fc
f9f3
14dc
ccb0
b136
78a1
fc79
21d3
4897
3a77
8a44
e2e5
a4e4
35b4
ed72
5dd4
a289
30a3
19ca
2ea1
6e27
a72e
04e6
2604
f69b
1f4e
9c4a
46ed
31db
d8ca
dfe8
ec1e
4c7a
ef23
ca9e
6a3e
15d1
6ed0
305e
8eb6
1865
7e1f
ee63
e216
8d46
8038
c866
13c2
4313
61f8
71ba
ac2f
a6c9
0f8b
df5b
5f75
8cfb
2fb0
0de4
d7b1
8bd1
ad08
27d7
6be4
90fa
90d0
be9c
403f
9e56
7239
888c
888a
c9f2
cda9
03af
14f8
04c1
3191
3b21
af24
dfed
a1c2
630b
e2df
89c6
8b7c
60d7
8b19
9cce
1b4e
0cc3
09ca
1acf
1a07
adb9
c5ae
fb85
fe0e
f98a
e10e
9cb1
68d6
d65b
ca04
23ea
43d4
b2d3
e972
99be
bd0f
1af4
b161
4945
7b2a
90a8
baa4
d382
f6e2
46a6
1c27
8ce0
6433
e381
c254
c4ba
b9d1
82e0
90ec
6dec
9c6c
ed19
406c
8bb7
45c8
c3f4
4a0e
8209
c9f3
fd8d
1293
8603
1892
18c3
c134
2c2c
df7f
4cc6
ca9f
65b4
b4b4
f3d8
17e8
a4d7
b776
1eb1
edac
e512
40c5
653a
adc4
2b19
2218
8b8b
ae12
b23e
6cc1
f2ce
074a
3e30
4e29
492d
9e7e
c4a3
dd94
6fc5
e178
b696
7cd8
a8de
f4e6
9e9f
d0e0
b28c
53f4
95ce
62c7
80af
1d9b
5df3
68fc
7435
8d8a
bd27
dc14
cca7
1cc6
2cae
afde
8aef
d4ba
8281
9481
29e3
2b0a
9de6
d909
d361
a03f
b283
c1fb
0e45
1df7
8a0b
ae58
b20e
1491
c689
3641
4fd7
f8bb
9f77
1adc
8a16
b228
199a
59c6
f5e4
2bb8
9049
c286
99a3
e34f
eaf9
540a
972c
a949
c788
fd31
1203
6f58
384b
0f91
c17a
bc8e
cabf
9a29
6523
d921
475a
fb06
cbc6
f70a
309f
e21d
90a6
acca
0d33
098b
3d3f
3a8d
081b
28cb
9674
f1ff
f1d5
f8d3
9ad6
0d58
5ae8
eaea
65f6
e304
c292
c4d5
19ff
a056
ede4
80d6
b0be
3936
386e
c2fb
e08e
c442
2706
49f4
5329
6319
f2ae
288e
315a
c11f
a8a6
da16
6a74
bad7
7720
a588
3077
a467
eb19
3dc5
c938
bdcc
90a4
8f6b
0728
470e
5d68
6dab
6ac8
79c5
898c
91f0
ad7d
cc02
ca8b
e5be
6f25
e60a
f1c6
72d6
9272
a781
1e28
7eef
40e8
c53b
991d
a042
3d46
40af
c2fc
be63
7af7
b961
902d
b164
edc1
5530
720b
8d86
9d8c
26b8
dc74
0feb
c10e
d192
91e8
a8e8
4843
9f34
d4d6
b493
c7e1
3060
8b15
b9a1
73f2
adf8
d2c8
03a7
055b
163d
11eb
a693
561d
4c47
6392
69e1
f3d7
279c
9e1a
aaf6
b71f
b963
ad4b
5b89
4484
8a8c
a0ab
c295
c417
d745
28fb
e188
8693
689c
76eb
bcbf
91c5
c393
e3cc
82d4
95e4
edd4
bd06
60e0
a074
ed10
3565
3e49
5b9e
cd6a
c0ab
1460
2888
dc4b
16e9
5618
bc21
bc23
df14
f847
8a57
bab0
b320
d493
7db2
be16
5af6
c2c3
4e6b
e282
8b86
b238
e34a
b2f0
47a8
4d7d
57c3
6741
8577
8d3d
973c
a902
b6fe
ba8d
b43e
c733
fdad
f3ae
fecb
71fc
1154
6872
a8c7
1a7d
be0c
55c8
276e
8b9d
a722
b749
c802
da64
daae
d310
ac4a
dc35
1fdd
b6ac
91ec
5f84
2171
63e8
9a42
4422
8e02
3811
793c
eba5
ddc2
b71b
fb88
3d55
8e41
bd75
039e
5837
0f1e
418c
3f93
ec51
c8e3
a148
53f6
5452
a3d4
22d8
e2b5
627a
a426
95ea
bd41
9fa9
bc62
496d
d038
b914
1b0e
233f
59c1
ad8f
cc06
bf74
288f
16ab
e6e9
1cd5
918f
a8a1
ec77
48de
f324
13b8
1726
a9ac
6dac
333f
9e52
c71f
e04e
ab12
f23f
556e
b588
0e83
320d
ad96
bf18
7174
2896
2892
ac24
16de
86e3
2256
22da
62db
13da
92d7
49e6
d5ee
ae6f
30df
e0df
8d98
a56a
c0ad
f2c1
29ad
f407
391f
9949
ae32
b577
dd68
e8e0
71f7
2883
c690
387f
5808
8f84
2cd6
413c
c8c6
a3ee
2f65
5d44
4166
17a9
6e51
9d17
9ef4
a325
c763
dd0e
e9f8
0372
057c
9c2d
b849
669c
965b
0fde
d1af
2f2d
aa1f
1a7c
1a30
babe
e2bb
a7fa
528e
19cd
a045
2714
5460
d344
570d
a00c
b7c4
715a
289f
e1af
9cae
16db
3175
2cb6
d18f
9108
93b1
48d0
e275
62da
d298
97db
5ec6
1e24
1d86
373a
83a2
9e7f
d6f4
31ae
c1e9
fc22
ec8f
339a
64fa
24b3
c2fa
83bc
297c
1be5
8db4
e530
3813
609e
ac6e
e342
ebf8
9569
9022
3395
3daa
5d3e
5e9d
54ae
8248
87cd
ab24
c3c7
08ae
1188
b6b3
cf9e
1c78
3b51
41e5
4fb4
ef1a
5a25
1a76
a42a
f2de
f778
ded6
9ccc
3089
6d1a
2283
d8f1
f4c3
42f5
2597
7d79
75a7
8922
8a8e
9e29
bf6d
28de
aced
c6ef
c62a
afb2
a8ec
93b5
ec76
4c84
3316
643f
d9d2
4336
b296
8486
9920
5eff
c0da
c098
a09b
2bfd
5413
bff6
c6fc
867f
86ee
8f54
9f94
ef3f
a1ae
7433
5493
c4bf
d4d2
a9d1
70d8
9030
a368
c282
e09a
c40c
09ce
1b30
231e
6acd
7b95
a7c5
1230
26ff
e832
7119
9872
d673
d84a
df2e
f85a
73e9
ca5f
5a0a
8a5a
c3bb
17d2
8492
0794
a0ba
89ad
9ccb
a0ad
b530
3579
7735
76f0
8b67
a749
c410
daca
033b
1467
b64f
0f58
91b1
5fd7
4f2e
4fc3
f8ff
48ae
39e6
e3d0
e35b
d7d7
679c
92d8
42b6
e026
e0e2
658e
fb32
8c62
f266
abbc
35f0
ad0b
dd8e
0432
c654
9ce2
86ac
568a
2cbc
3b71
3bd5
bc4e
2faf
775d
ee96
fc65
11fc
c9ab
51f8
7597
ce2b
c20b
0559
e893
3846
b1ee
7c75
5cfa
783e
410d
8cea
9fe5
e39c
a35e
b475
97ed
f5e3
9db6
6b1d
691a
ab1f
e40c
30f1
2b33
ee3b
03bf
08cb
045d
7213
4681
583a
966c
d12d
915d
a893
da1f
5a45
c423
b2c6
b2e0
95ba
f95c
f746
5eef
8462
9c61
f569
ae66
b88a
1d1b
a211
1e58
7d8f
9ff6
9e31
a31d
084c
f6a9
c1e3
7c3c
df4a
a8a4
5a41
4abd
6a39
c4d9
19d0
a9d8
ab5d
7d73
093a
a937
e914
a917
3b9d
8e87
ada1
c3aa
c43b
e7f0
e3aa
fb0b
085f
71a3
dc39
9858
46ae
587f
e6cb
3fb2
ba3d
e320
4390
6279
72da
130a
1553
1e08
6266
a0a4
1402
c26e
7712
f9a7
8024
c44d
42fe
27fe
bd24
b764
ed59
08f7
5853
b6b9
4f95
7a9b
b781
cdeb
cb58
1b5d
4de2
40d7
9b12
c02f
bc61
293e
293d
80c8
2b3e
72ce
1a68
57cb
aea2
e2a2
6f7c
28c9
31cf
c1e7
c138
9104
ec25
486f
cac6
9a49
1aac
c32a
24e4
1520
9720
c596
09af
f95e
c09f
6549
6219
6bb6
ab3a
b511
4e14
0918
826d
0d91
6d2d
97f4
cd59
7181
86a3
66b9
bc9a
df3e
5fbd
8899
c808
f856
5ab0
a3a6
49e0
7526
2b08
ddd2
a54c
8d11
f9a4
0784
56fa
6e2f
a5a2
b99b
dbcc
26b7
0906
666a
df94
8c08
6308
cae3
aa90
c4e7
b978
7208
9426
84c6
2b57
6db8
bdb6
74c7
a341
25ce
30a2
5c0c
9788
cd6b
f22b
2631
bf8d
e15e
9c2b
46eb
8666
2c7b
bc9c
df04
e79c
9ae0
9a31
ea54
1a9f
2359
839f
d2e2
6b5e
0ee3
dedc
b094
158e
db43
85cd
1e25
324f
6bcc
7004
b425
c2a9
0813
0527
46d0
bcd0
dfbc
efc7
ea48
23eb
2490
44d3
84d7
95d0
8752
a053
90c1
358b
5810
a96d
822b
81f4
abcb
c39e
dea1
fd92
08a6
1f1f
86b6
91e2
91df
9f48
ca27
6a04
d4ea
32af
5981
f5ca
4b4f
8883
544b
870d
a7a5
a9c8
c797
ddfe
ac7b
e136
766e
d68c
c123
4123
5f2d
b372
f390
67da
bdff
3028
40c8
6d11
9b8c
176c
37fc
5e77
ad6c
fbc5
08b9
04e3
bf0a
28bc
9c29
31cd
8f34
939f
4334
e2d8
9757
c57c
fbeb
6e23
e531
1119
b217
e0c4
1e7d
2d9e
7577
7205
8d93
8e78
94fe
0379
03c3
049d
dc9f
9c6f
869d
6632
e615
7852
bc5c
91b4
93ba
f872
63de
9ad5
337b
8a77
b9da
e992
99d1
f50a
3772
5eb4
5c62
733c
653c
a5c7
9462
3b0e
14b9
1264
26ba
96da
cc76
b1e5
7cd1
ec18
aa74
aa44
65d9
c2e4
f438
84e7
ae9f
bddb
7d0a
8dd5
7f66
a5cc
a938
b07a
bdcd
a512
742b
a6fa
fda5
acd4
115c
b8ff
c19e
3fb1
ec3c
eb51
c7eb
b7d2
f2e7
07e6
c0bf
eeac
a58b
b538
1515
ec6b
60fd
e3ae
3873
96e4
cf8d
b17f
b1e0
2c2b
d182
9142
8178
9a33
82cc
57e7
15d7
159f
4928
4977
999c
7b5e
70d3
ddd7
f468
a0cc
9099
e09e
c81f
9bb9
0ccd
2e34
56f1
cdfb
085b
088c
bf27
e18b
e11d
ccfc
2c9b
4172
ecf3
6504
17e0
fb52
f246
fde5
3e81
a0cf
6934
a935
1bb2
6e14
a8f5
3e9b
f427
9cbe
461f
110e
2cff
fcae
c8c7
9a4e
24be
e354
e457
e4d5
5908
9781
6be0
9d04
30e4
4e9f
70a4
19a7
a56c
674b
648e
6e85
7207
9da5
d76c
e768
e90e
ee27
ed24
ed63
f99e
f628
38b4
8c47
3a1f
6390
73bb
e35e
2d6f
9021
ded8
893a
2463
8ba7
f71f
840d
7c61
c932
ea15
75cf
07f7
1d0e
298c
35a6
a5ed
cec4
c41d
053f
c634
11db
fcdd
8c7e
ec8c
4c46
63ba
15ee
9bff
1deb
65c5
2af6
581a
5249
7738
992e
9505
acaa
c61d
9881
0b79
0b5e
c136
0c75
7fc5
e703
c3d8
c42a
e4ff
19e6
9e98
8b48
f365
baf9
d06e
33cd
4d23
476b
a005
a2ae
b787
bdae
c41c
ac4b
dc51
9c1c
0f2b
8cb3
7f1f
4f35
2a93
2a25
64bd
d59c
6ddb
ae0c
a0e6
1d72
30e3
9bbf
73f8
1c06
64f8
7e31
b008
ceed
acde
4679
0c5b
df08
48e4
0de3
3976
e3e8
a4d8
f223
4de5
0b46
603e
6883
6bfa
8d4a
4587
5963
27b5
2ac7
474a
6a61
9e82
ab2a
c331
d00d
f7cf
0818
054b
1c9f
7c2f
bc8f
8148
2fe1
aab1
baea
74e3
53d6
8bd0
35e2
9dac
beda
a03c
c91c
a0fc
e91e
e2c1
2b95
2e33
292f
424e
5745
7384
848e
eec8
12b3
6f24
bfd3
f6dc
b6a2
e6a1
8f76
d6eb
d645
d8a8
2c45
9172
5fe2
8c9c
4f52
c8a5
4a48
8a4b
2a5e
e490
524a
6dde
7e0c
e58c
4036
d2f2
321f
411d
ddc8
9dc7
b532
596b
3730
4ec4
750c
ba64
daa2
dd66
0330
ac59
86ae
8f11
0f71
bcf1
af58
c87b
9a35
da48
e45d
32bb
49bb
49f6
2eec
a7c6
2be0
5edd
a0d2
1114
1819
adc6
b4cf
3265
ebbd
abbd
c966
d968
8d99
7162
f695
dcd1
1ca1
5f86
8c30
2fe3
2abc
d396
230f
d7b2
b2e1
447f
2b4d
ab4f
5b8b
5eab
9414
a5aa
9cd8
8f8a
d8e9
5674
d145
a87e
51dc
73b6
9ab2
6593
e372
e3dc
831f
b9b6
d432
a9e6
a95a
ab6f
9d21
4e93
636e
704c
691b
b54a
cba4
2ec5
beae
e48e
034f
0838
08d0
16c6
66c9
fc57
fada
b42a
8920
15e4
35d8
4df6
8eb3
e0ed
e514
111b
eb86
6093
64cf
d0fc
7ff5
720f
9b6b
a4aa
1223
0436
ac7c
e6ce
d6b7
1c3b
785b
bc4f
af8a
fc42
eed8
d235
a09d
a0ce
1561
a04f
1d45
9d45
6111
eafe
2dfc
4e5b
b202
baae
c74c
c2a7
e39e
03ac
0530
bf99
7106
7111
cc7a
c190
2186
d473
b43c
e224
13bc
70d4
fe23
170c
238e
8b13
af63
7910
18f5
5d11
3aa9
8e25
b78a
f76d
03ff
04a6
98bf
9c4c
160e
66da
7c82
d116
8c74
b3e9
a29a
27b8
ab0f
0ebf
116e
c047
c812
4360
62c2
23c4
829e
b484
d76e
b408
711a
e1b0
4615
31c1
1cbb
2c36
fc3f
ca88
a30d
f4e2
45e8
b5af
2df6
bdb3
a54b
8ba4
909a
908c
871f
8bbe
f883
44a3
24a2
390c
6ec3
7243
9e45
e59b
f78e
f7ab
084e
049f
28cd
9c3a
b89b
e6e4
3f23
fca9
ea36
2a34
c373
24e7
b416
8b73
d5d3
9d02
a546
6af1
ccce
8b3b
3bba
52cd
3d88
6332
741c
b1fd
030d
7191
3693
5836
91de
914b
41c9
ebe8
697f
459a
c553
27d6
7b6f
aeeb
bec6
6165
a065
a537
2715
ddc4
c939
b2c4
27c7
0812
14e9
9c52
11e1
f855
4c33
1a35
6456
b2dd
15e1
15de
7051
8af5
b26a
4e1a
5164
1e74
5d93
7db5
9c06
28c1
dca5
cfb6
2c3e
df05
da3a
747e
699a
24db
e476
c7ed
92ac
557f
a792
d5af
a0d8
70c2
affc
95f0
1579
3bcd
4e89
8e9d
122b
e862
289a
4673
185d
6102
d8ea
9a5a
6a7a
3279
29d1
49ee
d552
f7b1
c091
7029
40f0
2563
788a
2fab
57bd
6a0f
7529
877e
9ac7
b38e
c70f
0335
6f79
bfcf
28d0
cf02
0c16
2fd9
8ad1
c258
e4f6
135f
59bd
420a
b559
8c6c
5e6a
586e
64cd
1a60
6b67
8b0d
bd7b
9c17
766d
5cd2
df0c
93bc
8c34
2fd8
5ae7
7ad0
f458
17bc
70dc
fe93
a079
1c62
a915
b965
1a67
5738
6722
678f
a947
ba84
cb95
e55d
f522
bfec
28a3
acb4
a120
aa34
33d5
74d7
c2da
cb7a
1b02
1d06
709f
9079
dba5
9e19
5407
b348
ab48
4e16
36f0
59f4
6311
6227
ae7e
ed8a
f43b
032f
6fc8
e872
712b
28b7
f6eb
86ce
31c2
a686
1893
e7df
c5e2
9594
aed8
30eb
d052
0c6d
1162
a0c7
9092
1d1e
3511
83fd
cb32
9165
bd32
b73a
fa85
c6e7
dcae
1f42
e67c
8fe7
fc3c
4fb5
aa72
d2b5
157c
a946
b754
85d8
1df6
3021
30dc
305d
60e9
c064
3af3
6045
d918
388d
bd1a
a02a
ad13
a567
9363
25f0
5ec7
b59d
11bc
b6e2
cf81
d631
1c77
7c2c
88ac
da4d
796f
44de
a9da
47bb
09ed
886a
fb4e
cb14
2b8f
192b
23cf
480b
49fb
0823
3667
7629
1873
5638
7c36
5ce8
2c2d
df3f
4f0f
ef10
1a26
eb7c
62ec
62e2
9479
c9fa
d915
a032
d58e
d588
536a
82c5
35ca
4b84
470d
480c
4e4c
8ea9
83c5
8e3e
b3c4
28f9
e11e
1609
a61e
d8ab
d14d
2f7a
ef1d
e9b7
9258
c5ba
b7dc
2b96
e0e1
6dc8
1111
2268
e0a5
9dcd
d068
2d27
998f
c6fe
dea3
e814
eece
0816
083c
cc1e
af7c
5f4f
2fb8
5175
74de
8290
905d
1937
3882
b464
64c5
78f5
1e4f
24a1
4e3e
8e73
b322
fbcf
1466
c633
b621
41ff
2f3e
9a5f
ea97
8aff
2a9c
7204
19bb
47b1
85b9
07dd
30b8
8860
8baa
bffa
396a
3766
ae34
d2a8
dd88
a6e9
66d6
e661
0f95
1c25
7c03
af07
af78
2fe7
21ff
cad0
ea4a
fa98
6274
2be7
2b23
5ee4
5dba
30ec
0c63
9b1f
faf5
0963
b02a
92c4
7447
800e
9d2e
a7c3
a5b7
c3c4
03fe
c68b
3855
8641
e667
8f04
d8e4
0c73
5c6f
bc3e
ea16
655c
6971
2451
8b5e
99e6
5b5c
70b0
c03f
ee6e
2719
c404
c3fe
47c3
49fd
5df9
6789
7524
738a
cd3f
dd9c
ace9
c6e4
58ff
1146
3189
cfd2
5cd8
7f0e
e503
5ada
5a1f
727f
6b54
1db1
e07f
de18
9093
a0f5
8f65
cffc
75cb
8029
1ef8
3e5f
6ace
638b
aff6
cd85
e94b
086f
2664
28ef
9c21
a68a
ccfa
8121
ef85
6a20
74b2
624a
d2d6
47df
7eac
8464
c112
4534
d449
339e
14be
04f5
6f2a
8610
9651
d6a4
ef91
da77
ea74
6428
77ef
fbd7
b596
c260
ce6b
c1f1
2da6
3a6c
b48c
b595
c6f6
fe31
0894
1276
68c6
e6a5
6130
b109
d14e
7847
c8d3
6381
cad9
4a2c
64d2
c3e1
6226
d275
995c
5bdd
793d
f9a5
5885
53a9
ce0d
9cbc
36ab
31a4
e63b
c17c
7cb5
af4f
3f99
f132
f195
1a5f
17d7
8b76
a9dc
85d2
40de
453c
2ec2
6734
89c2
b4ae
c72c
e332
f999
0428
6f95
b8e6
5672
af89
3f48
ca7f
ba72
a4dd
6db4
8dc4
8c60
226a
4119
c46a
946e
d464
f968
abb4
5d76
a2a9
c7c4
fb61
5892
b64a
e613
18c6
cfbd
2c23
41c8
6abc
2304
a2b1
2382
eb84
d860
d036
8114
6441
73c4
ad60
b6f6
ca07
056f
121b
26d5
260e
e8c4
3872
36ba
b87c
d666
0c93
3f1d
48a9
d790
d796
b2e2
e904
8554
6560
5b12
b061
4e73
8807
8975
cb27
e723
28d1
cc48
18b3
7c1f
e778
cab8
9a54
c776
a4ba
47d6
cdb8
9593
87ac
d36d
d21e
a041
c56d
90f5
53fe
82c4
1786
23ad
29fb
3761
642e
93c4
a57e
aa61
ad67
a248
b5ae
0857
05ba
12b1
04ed
04a7
28e4
9c20
2cb5
d127
9ab5
4a2d
2adf
a256
e957
7e71
8eb8
60dc
cd7e
dcc1
6916
e719
d34e
1986
372c
552b
5d69
7705
ad6d
d48d
2881
28ce
c663
11a4
4129
fc71
fc27
ba94
a5b6
d7d8
599c
25b6
e583
0b18
ed16
f360
9e16
ac63
e466
c363
c9a9
23c8
43aa
6aa2
6427
b007
c9c7
e529
2646
8f33
f859
0d06
eabf
b4b9
cbed
a058
8fa3
5f64
2d84
69c9
96fa
d2a3
fd23
e8a8
dc75
9ce1
86a2
1c92
5f5b
735a
6a2f
a5bc
24f6
e334
2290
13e5
5796
92d0
9279
25ff
a79a
d365
30c2
d3fe
6ba5
e082
db4e
b8f2
854a
f2c9
95f9
8a18
378b
3723
43a8
7af0
740a
aa09
ebce
03d1
c63b
cc18
5191
ef88
23c6
b9e5
f486
addc
25b2
c520
6bea
9dba
a46d
1af6
ae61
c0ce
65fb
4d1b
32ce
3bf1
2d25
6ff6
8b0b
e760
122c
466b
6189
7fcf
f898
9fde
c276
e22a
1578
3e1b
c345
b031
e08c
b563
cff8
aa15
35f1
290f
37c4
7e5d
aec7
ad92
d5be
e5ab
e836
bf1d
714d
c6c1
3879
567c
91bf
fc23
21b9
65bb
5392
e3db
8b59
c55f
6bec
4bdd
c051
3ee8
5c66
7568
226b
30aa
ee1b
5e22
b72a
cd93
eec9
f745
fbc9
05d4
04de
f6aa
9823
9c23
46ff
1178
b656
6664
561f
f1ed
f184
ece9
ef99
8b90
f2b6
1ede
fd5c
30ff
7e23
9e23
4b1a
a069
1560
2e11
2360
d563
6119
f4cf
52c8
8a64
976a
9802
e4f5
f777
0355
127d
7177
9cac
3655
8f3e
5683
78a8
3ac6
4ab2
395f
d35e
2277
f4d9
1eb3
4d81
e05d
60c6
0b4d
9f63
b5cd
fe66
5e30
bd8f
e3a5
71c4
98e0
b8b0
e61c
5648
917c
a8c4
5f51
a1b2
8a5e
62dd
f303
cebb
8de7
eee7
60d2
2c6d
0d69
0e33
24f1
8b38
ada5
a4a6
bda9
c760
03eb
2895
9cf7
6856
e6c6
cf34
afe3
3fef
f147
5f78
4f7f
ec1d
8158
f881
5ad8
33d2
7adc
22e5
b293
c79a
195c
fbe0
85e0
d5d7
9d52
0b4e
938f
2f6b
1fa4
5b4d
5f63
c9a3
d0ac
0c0d
0761
8207
ae39
c2a1
ee2f
bf94
9cdb
31aa
b8d0
e6bb
7653
8f1e
5ca9
bc96
bcd5
5f91
2f77
4872
4a93
23de
e3b4
a307
8b72
59eb
8452
42ea
4976
5e46
a0db
48f4
3e18
1dc7
3b87
1d32
4b69
a20d
ba6c
ea63
089d
126f
0496
6f1e
7159
28a1
c6b9
989b
16ea
96d0
91c3
5a97
1a33
8ae0
2ad2
b359
6978
a5dd
53d7
d4ef
72d2
c7e7
8472
52d9
c5d1
cb56
f9b3
9af8
e236
de62
9cca
9083
c111
7289
076e
4922
49c2
dea7
e786
f3cd
146a
f658
9681
c1ff
8837
ece5
ec7a
2f33
2f25
efee
ea34
4a58
f41f
72b9
75d7
90b6
07e9
a0b9
7eaf
9c6d
8869
8ba6
904d
2589
23a3
273d
3e33
73c5
9d94
a78a
bd94
b9cb
c243
d4fc
febd
16a9
0f18
5c88
7826
5f5a
8847
c83e
5197
da4a
ea43
6559
23d4
e3fa
8308
b4b5
225b
1593
a991
6de0
1b58
5ed7
c090
6d4e
5e85
3263
bc63
e08b
b34a
dfad
b71a
c88a
7548
86f3
a427
cd3c
ceb2
e509
fb7d
2885
5c0a
9390
8cec
8c3c
f829
63e6
aaaf
fa9f
f471
c5bc
6b57
75b9
5c6b
cb47
94c7
a860
d0f8
3a6d
3acf
6dae
6d3d
ad61
fbc3
f435
f6ed
58b1
18e6
af0c
9f53
ef48
bad2
69e0
b9ea
8954
f3c6
2594
c928
0da5
a02c
b091
a167
e031
c164
07ae
2ecd
33ca
8e0d
de8d
2898
acf5
1fb5
5651
b17c
9a44
72e3
77ec
ab5c
abe0
9db1
7230
9464
2935
d5cf
f9aa
aa1a
fe61
cba3
3d68
dd67
ed68
6fb5
11bb
118c
96eb
5622
2ce4
78cd
af3e
7fbc
fa95
2a9d
6439
7aef
44b9
1e09
406f
ba14
a02f
d58f
caf8
f16d
c405
3bf3
2df2
374f
99c9
c943
c38a
deaa
08c4
6fe2
28d3
98ed
0b02
867c
318d
18c9
5cdb
8803
8cd5
8ca4
4f5a
b334
b379
ebd8
c298
c4d6
9796
8dfa
cd7a
e0fd
a0a7
f886
8b3d
75c9
45f7
5e75
7e97
c3c1
bf7c
ac43
1669
11dd
a6d0
9622
d134
aa88
aa3a
eab5
8ade
84b0
2e93
a06f
30bb
be13
a07b
8516
9534
79a9
d4c1
ccc2
2e82
5d3d
c7cd
d94f
ebcb
289c
f663
e1aa
3154
76da
9123
a8ea
88e8
7391
1a3c
8a48
d436
82db
8db1
d23e
c53c
0e14
0fa3
a86a
44c9
d0ad
2b99
8ace
8ef5
9ace
127c
6fb4
1f51
9c5e
3697
86d4
b614
b178
8cf5
2f7e
efc5
8a97
b432
e493
1398
15d6
6bd0
85fa
dee8
17c9
a53a
d060
9ffa
64cb
ec65
e013
0d6d
5e38
5764
a6fd
d7c5
265d
71cd
e176
31c4
1cf4
560c
5cd1
885e
8c2a
81d6
4c8d
e5b4
9a7b
db5c
2be9
2bde
c530
a286
936a
b2fc
1546
1e3f
259b
3ef9
5e4e
a76a
a48b
b6fa
c579
cd6c
e413
fb2c
1265
261f
3122
7c9b
2c94
93cc
81e1
9fea
a14c
e5e3
94d2
25e3
b7bc
ab28
f77f
0ee6
a051
8b46
e0fe
d515
e2f9
3aad
e84a
bf7b
28e8
b820
68fa
1ca6
b158
4fbb
5a5f
ea28
b9fa
59b7
9b6f
09ef
a0da
3d52
c712
904b
c560
d969
39c5
55ad
7317
99fc
9a0e
daaa
deab
c628
9ca6
86cd
cf5f
0c3b
b134
7cdc
2c15
882d
4f57
c891
48db
659c
c3ef
6928
2433
a3dc
a3ec
a438
6d04
3056
1c61
2d4e
cb17
a0f2
0965
258c
f965
5fac
d88b
1ba7
1d8f
27c5
6da6
7d3a
bd62
cb60
7638
76c1
8f5c
6cec
9195
9359
818f
65b8
a2bc
256f
6b56
1b03
eeef
70c4
e464
c5c7
43fd
1a6a
39c7
70a8
7b25
9e49
9ebe
94f7
cecc
ac8d
e18d
d637
c858
4803
9f91
b328
72b6
f3b0
82a6
e9e0
8ffb
702a
671d
af61
bff1
1d1a
f882
2588
9113
0786
37c2
4ec7
57b5
724b
93c9
b0a8
e1fb
1453
04a1
046d
26b2
090d
1fba
9c2f
9c59
b1e6
3f07
3f33
7f3a
48a5
1a46
1a4d
1a95
d3dc
e35c
83e1
b2ea
92d2
c557
f273
80fa
6d43
f369
ab49
2d76
5731
a52a
a762
ce39
c789
ddee
1483
e1d8
46c7
8631
b623
ccfb
d662
d849
bcf2
fc59
5f30
0d6f
6552
b3bc
ebea
c2af
a39a
89b1
82e4
17d1
44d2
2920
0ee4
db12
9cc2
ddc3
d549
3286
b53e
b2f1
23c1
5733
a4a5
a38a
a24e
b70e
7f23
519d
ba75
c30e
b928
d77f
e9af
b5ea
07d4
9d08
393e
b0c4
15cf
2bb2
b3f8
3d4b
ad1f
8039
69a5
1ba4
0b63
8b05
c782
f529
04ca
98fe
b878
6196
41bc
a858
fc21
7f74
c8ed
e5b2
da7f
aa5b
ea8f
d4b1
fbee
4b26
2db8
30d7
4eec
b0ec
7b11
193e
2cc5
486e
c118
93f9
0b65
1e4b
2e97
2e89
490f
5e44
de30
e310
4694
56b6
0c26
b1e2
d197
4cad
c3b7
d993
83d1
79b5
4493
75e3
dd81
d73d
1e1e
ae16
e46a
22a9
331e
6ec2
7e5a
973e
a008
a9fe
c484
dd0b
055c
68c9
9696
0f11
5fb3
ecd8
ea79
1aeb
ba88
b31f
e326
d43f
e47a
6755
8be7
a2b4
db96
85e2
750a
6ed2
302f
fbb4
9cc8
90a5
9023
773e
aa62
d41c
e922
e82d
7114
98d2
9cda
11ee
8626
3f95
51ff
ef1e
aae4
a4e0
f9b0
1e9c
fe72
60df
fd4d
6532
65c8
ae1a
cd1f
c089
9964
d2c1
33a8
c9c9
c4a1
eaa4
0371
387b
e16f
1634
31da
760c
af71
413f
fc5a
4f1c
ec23
48a3
6358
fa29
c323
b3d4
a5e2
15e5
9221
a77c
d5ea
5ed2
a0d5
7939
9dc9
70fd
d96e
eb3a
41f9
524e
dd2d
d7a6
fc02
0374
985a
c18d
d17c
cad4
b9b2
13d2
a22a
e9ed
35df
b704
5bd3
1dbc
8dd9
5287
b93e
f9a3
5211
6016
4d34
4b2f
5eee
ae29
edb9
e2ab
08e2
28b5
989f
9c2a
86e2
61aa
5cb9
2c47
78ac
afea
af9a
c8ee
a1e3
ba3f
5321
47da
f293
7e26
ddd0
9f60
b0af
0dfe
57c5
5d5b
5e3e
631d
dd2c
f98e
f24d
669b
9606
cfc1
c186
7c93
3f16
88ef
4836
aad2
8a92
b2e5
44bf
2eba
ab7b
3e15
451b
381a
90c4
8bf2
6039
7e68
6b8d
3763
5d36
5c05
aeb9
cb7e
03fd
31ba
3183
2ce3
9135
af8e
93d3
88e0
ea91
b3e7
c4b7
1394
a9b1
9b94
9598
beff
8d81
a73d
407f
b344
e40f
7af9
416e
7e2e
8e36
9b2c
b31d
bd6e
12f6
044b
9c58
9c38
11b9
7619
6177
2cd2
51ae
63bf
aa93
1a93
7a7c
2421
b2b1
a956
2e0c
09b7
fe20
9341
6d41
5cc3
a0cb
2e1f
90f1
3a15
7af2
911c
24f9
492b
8b62
9da8
a50d
d7ad
ea64
12e0
718e
4629
96bd
18cb
d6ac
88ff
6371
9ae7
c3b8
d43c
c9e9
d047
f81f
4e63
3083
c86e
8262
2964
2d5b
a3c5
ad3b
cb6d
c631
6671
5c2f
913d
3f04
ecd5
48d1
3a22
5aec
a5e7
82dc
37ee
aeda
306f
dd5c
923e
334b
d073
f86d
991c
3084
823c
3283
e0ae
b064
9b82
81f8
e7c2
e20e
ed99
eef4
08f9
12b4
12f0
163c
5857
b8cd
18d4
c1bc
af56
df9e
4f81
1ab3
2a7c
643c
235b
c47f
7223
f35a
45d3
42b4
9035
adce
c044
8b8a
c0fc
93f4
91f4
0e36
173e
4722
43a1
6ea3
ae27
ada3
c2c8
dff6
d7c4
d9ce
ee45
e76e
6fa7
0f30
1c2e
bcd7
afb8
8cf0
aa97
d977
d4ed
13e8
b5d7
a759
c0c6
651e
7ba9
3202
b313
2671
98e9
1f4b
e6e2
d60f
c108
d1cc
df13
fc8e
4c2a
e2a6
d2e6
6e93
a0d4
ed51
8ed6
2c63
ae1b
eb14
dd44
df62
916c
611a
5902
5332
c702
ee36
05ea
71bc
e6c4
96ea
f1cb
2fcc
a1a6
a18c
dae8
c27c
89e5
67dd
fb5b
859a
07b1
f954
6162
893f
c062
d71f
e26f
8e63
cd47
bdca
d08b
aa12
2402
4a6d
45ad
67ae
9dad
a31c
f987
9ce8
e607
6496
a55a
6d02
5e06
feec
3dd6
b0d9
751f
1bb7
cafe
fb13
9e68
2485
4df2
5d2f
bd0b
b4ad
08a2
8fd2
1c31
af51
a8c1
f187
faec
23ac
53e5
531f
b9e9
6275
2903
f7b6
4064
493e
ae1c
758d
4e31
47cd
778c
dd64
0387
7133
f6c5
c836
f8cf
ea3d
225e
a411
8471
f274
ce90
90e9
1eb4
1eef
703c
9b1b
6066
e2c2
85f3
1d7d
1ac7
2927
2d35
8768
dd85
08d6
1431
ac94
b8da
b1e4
88b8
8c5c
4caf
9a39
7ad3
e2fa
62d2
fbdb
37e0
7be1
cb16
6510
dd4f
15fc
aa1c
7ffa
07c7
54ab
9747
cb9e
eefe
04ae
e8ac
1f0b
9c24
a827
8cfd
aa47
6aed
c336
537b
2228
e4df
679a
35ea
1b08
a05b
1d26
3ede
d056
e5ca
454a
de1e
e088
f2f4
5f65
428d
35aa
324b
4395
4ea7
8e49
b529
cc0f
cb97
267b
2610
6f32
46ce
31a6
cf7b
0c99
b105
bc2e
fc93
8852
c89a
9a47
33de
742f
7ae7
7904
755c
d5e4
f9f6
80b2
ac61
1717
df66
971c
996c
65fc
5e47
d31a
d597
e9f4
2683
cf26
81cf
a5dc
29bd
979a
f978
ae06
3d73
5e55
aff2
0f6d
a024
c267
6086
2445
2a05
3bc5
ae31
a5a4
eec5
716a
c687
4624
86c6
cfe2
5c9c
dfde
2f8b
63bd
aa9c
aa46
b35d
6977
4308
db53
35dd
90d5
ae96
e0d8
c031
a71a
903e
f119
607e
191b
9163
95f7
54fd
67f1
b385
ceaa
d425
fc0f
e8b2
115b
b64e
2cda
a1c8
c358
6278
8774
eb8d
f868
89a6
bff8
3364
ddcc
551a
1b3c
d062
abae
4165
c9a8
7bad
470f
4d69
6e95
69f0
6ac4
6429
64a9
8d3c
a748
ad86
cd32
f94d
123f
28d9
118f
a633
889f
4a23
bad4
647a
54bc
7956
59b5
9b78
cd5c
0eef
aed5
15cd
d36a
e9a8
3722
3e45
3728
738d
9d6b
d72d
d7a2
d42e
fb29
03ca
0897
12da
e8e4
bfa7
1f13
9c84
a6b9
2c9e
78fa
df82
eca5
f84a
4891
8a7f
6a9b
6423
d498
f3d2
a27e
0753
3055
3e93
8b11
15c7
c545
3f6d
e083
b712
0b3d
cff1
6442
538f
66f3
8ec7
aa8a
b31e
98d9
11a2
a67a
961e
7603
769a
3f7c
5f15
7f76
9f5e
9aee
e456
6726
8b93
a2b8
7bd3
60d0
dccf
a03b
2f67
7e6d
f166
62ce
6a13
1aa5
3d38
33c4
542b
924b
cd8e
cd3d
de95
16ad
e690
cc4e
6c04
5c7c
883b
7f09
48d4
5193
d2d2
4246
a343
9dc3
f96b
2517
55cd
72cd
1e31
4927
4aca
5d35
678b
7b7d
7a62
de4f
e579
f99d
6f84
e808
bf10
b6d4
b66b
a60c
1c87
56d6
5cfd
41db
f1de
88a9
48a7
ef9f
caac
8a49
999a
25ea
c594
be21
a071
de65
d2fc
caf4
b23c
9ffc
1d7e
220b
3d3a
4d7b
676b
792d
86fc
89c8
8779
aea1
035e
08da
0575
bf64
c67e
4606
8f2f
d646
0f9e
0f1b
d1e3
dfb5
fcbc
4ada
ba45
a4bc
84d6
7e9c
9eb4
4811
5b18
dafc
30a5
d02a
4406
5814
8249
aa02
ba0e
0802
9ce5
1696
161a
36e0
b1b9
78e0
a824
884e
21b5
da90
d4f6
8b07
15b3
fdd0
8ddc
1818
70c8
a08d
c071
62f8
b5c7
62cd
240c
1a69
1e48
6ec7
77f1
7799
8e3b
a331
f68d
5897
311f
935b
4f12
c8ac
5126
5173
ba2c
237c
7246
7291
55d4
5bac
40da
a584
193c
2d69
c547
1863
dffc
453f
63fb
2dcc
6e18
3bf9
0ef5
1b68
6e0e
c9c8
e31e
ed22
e005
0865
1430
711d
367e
d6aa
0cdf
8cf6
2f78
b4d8
b45a
d271
1904
f2e0
5b7f
bd43
954e
4162
4286
2b82
23c2
24f7
476a
79cd
776e
b22e
c22e
ea0d
f7be
0874
e1d7
61af
0cf3
918a
ec6f
815e
2f92
739c
6a77
d421
d4e7
82b9
82de
19ac
a9d6
356f
bd81
9347
a0c8
5e63
c02e
401f
70f3
7bab
3e87
c33f
c677
9c7d
58cb
1cbc
d8d2
dfe5
5f0f
ece8
f837
c39f
69c6
c2bc
e472
d2dd
67ed
b7b6
fbe3
cbd3
f9c6
bd09
726d
fb44
b039
a0a1
8bbc
0cc7
62c3
3788
6d9f
77fc
9760
9a6c
abc9
c242
de5b
046e
dc77
587c
76dc
1c75
612d
5f12
65e3
b30c
8993
b279
8be5
9256
1bdb
feda
5e5b
e06b
1714
9e60
192f
25a8
650e
7e49
aac2
dddd
d50e
71df
867e
d831
2c08
91d9
9196
ca2d
67e1
8b78
d5d1
6e7f
fa1a
2f6c
e091
a162
b5ce
eb36
7730
8b60
8799
cb6c
eec2
f728
0895
2886
86d6
5cc6
9184
8821
2f1f
f8b9
9f25
da45
ea71
4a33
fabc
a2bb
a293
5d5c
dd51
786e
8b4e
4e86
77aa
ad8c
fe2c
6f3e
e8b0
28f4
ac3f
dc3f
3107
5c4d
afc5
df24
a84e
8894
ec34
6309
64b8
c308
ebd3
d4b7
b220
a456
a452
77e0
ab7c
e05a
7dd1
186d
1d4e
6bf5
ec6c
32c1
2ac5
4e44
6e30
7e48
9a64
c73c
e1f3
fefc
fc0b
0328
d6bb
1c11
5624
783a
a835
930c
4f13
e5bf
aa4e
eaa6
23dd
695b
e27d
67af
d020
e533
491a
bd1c
f719
b56e
3111
78fb
2d97
57fe
780c
ae2f
c330
dbc4
d6f7
f59b
03ef
081a
6837
18b9
1c99
61ad
a855
a3d7
f35c
c9b6
b778
90d6
fdac
8ee7
e0db
8231
dd42
fb1f
b23a
f8f2
b44b
5d6b
64f9
8d22
d92a
f397
05ee
7112
28e2
663f
1834
5cef
d196
df93
41b5
f1d6
5fc1
f8e1
ca86
da37
aa38
53e9
54ba
8356
e271
cde2
d5c6
ddfa
846e
de6a
8dce
ee60
c567
9ffe
b048
d88a
191f
4d96
8d3e
8bcc
bdf2
0899
2635
bfbd
1f54
584d
1105
6879
7686
c1da
bcf0
91a9
81ad
fa78
fa5d
23d8
32ba
29ea
2e9f
4b96
c0d9
c0d2
88fb
22f7
d866
3d11
826b
f3f8
09c5
074e
cef8
f76a
f6ca
e1b2
b1b8
9121
dfb6
13b7
9504
aede
805d
5348
881d
be67
58f0
c5fb
8dfc
a70d
cac5
1263
bf46
bf76
9656
cc9e
5c1a
f10c
ef2c
5ad3
5a4c
ebe9
53dc
22e6
d7d1
d774
89e4
ceba
dddb
eefa
2545
2263
0bf7
151c
f260
ef65
95fc
69a3
9d78
ad55
ba02
ce7d
1492
58b0
31ce
b8ba
a65c
b1c6
e4d2
d2d8
447d
b703
5e21
a0b5
8d52
eed3
4034
90c9
c463
3b41
c365
edcd
c96d
1388
4989
5eb0
76fe
8d27
a74d
14a8
2602
462c
31b1
31eb
cc5f
0fdd
7c92
dfbe
8858
51cb
9f0c
9ab8
6476
197f
8420
84d3
f7d7
1bd8
c05e
3e72
7d71
6e6c
6dc4
a53e
7932
a039
1d19
5bbd
e2ca
6ff0
7888
4b86
077e
33c8
9aa1
bd23
b77e
dda4
14b8
12c9
bfde
9ced
ccda
1842
3fe8
2f1a
6378
b4e7
f4e7
675c
8bd7
a2d8
aeac
801a
bed8
8d73
093f
a04d
aafc
79aa
c262
3b84
902e
d083
4402
8064
e9ab
5747
8d2f
8295
a98d
b403
bf2a
acec
e124
1123
e6da
2cb3
df21
cad6
6436
7a97
c798
49e1
47e9
2ec6
f9b1
1be2
305c
d0b4
c096
9b1e
a02e
a5f5
e34c
c0a6
5bfe
6a17
47c4
6e05
699e
ca6d
fef2
08d5
0842
12d1
71f5
e1ff
9cb3
1138
b62a
96cd
1c1b
0c3a
af81
afd2
4f1b
2f53
ebeb
241f
c2dc
47b3
fb73
fbe4
ab9a
c565
e71c
3b4f
a96e
7b39
1ead
3e5c
67ad
9734
aeaa
bf96
e1c1
1fc6
9cb5
3623
b693
a6bd
6666
df8d
a8ab
b356
720a
b2ff
5759
67de
ab03
bd4e
fba6
e71d
dfab
1c02
5efe
829d
9bc7
c41b
dd2a
f6ea
f636
98a8
9cdf
31c8
882c
a1bc
395d
b390
b48f
62b9
32bc
7923
5752
a4db
85b6
9528
70de
8ec6
9ed6
a5c4
7d15
fcc5
ae19
c07e
b5c5
b5c2
55f0
0769
5e0d
6a64
8df4
8414
a79e
b3ce
de5d
e7f2
048b
6f27
6f69
f698
c63e
8fed
c129
4848
ef19
639f
8a3c
5453
3e23
626b
c03a
e07e
4b43
4537
b5f9
071d
2443
3524
aa07
7127
86d0
18d3
7f04
a132
4a16
4aed
5491
e3b3
a3e6
d704
e478
15e7
9294
42c6
4794
9708
b593
87b3
886d
9bfd
b54b
83f3
9365
0b22
2787
23ab
47cb
574d
59f3
97a8
f602
b666
e660
1cff
56da
2cee
bc38
4fce
1a52
e3ed
b246
67e3
2504
97ba
75e1
f9b6
c0e0
8eaf
22c3
b08a
dd45
954f
fbfe
ab41
94ae
52f2
094a
36fb
46f2
5d37
61f7
b52e
08e5
141b
e155
36e9
86d1
68d3
68e2
68a4
18ed
6cb4
bc81
bc52
f156
5f59
e77f
51a2
6334
6920
9793
abed
2dd6
95d4
3538
5c61
8918
d917
9018
1b4f
471d
62f1
b0f4
a888
fb8a
2799
2c07
2419
54f0
839e
978e
9925
a22e
c387
fd0e
869c
cc04
18f6
1c46
0cdc
7c34
7c27
dfbb
8cd0
4a88
e2ec
8273
c7ee
5eea
d0d4
17c7
5e15
d91b
1408
9e12
8216
accd
5b88
72c3
43f7
22ae
3d37
4ef0
5d0d
573a
8e3d
8a8b
950b
b00e
d788
e79b
fe38
fb6d
fd84
03c4
14ed
717d
319f
e6a4
cf54
c1d2
56d5
9154
df0f
a8e0
7f1c
dada
dab2
65c6
6aac
430e
8994
82ba
137a
c7c6
295b
4290
ced4
f99c
30d0
7d56
eee2
d053
d055
80e5
8ffa
1539
2bf6
3dce
858e
62c9
076d
0739
54f8
66f8
de44
e783
7173
c1ad
6c99
b13c
a8c3
5fd1
3a49
7ede
605d
306d
d21d
2af4
63f2
c51b
2d1a
3d6a
4707
5205
6922
aea7
a595
05da
1412
04c4
9c7b
11d2
6852
b691
967c
cf4b
b1e7
41ea
ec9e
e7de
2190
23bd
e3e6
b9e4
d7e1
a9e8
abe1
5eec
7e03
7364
426f
db44
df63
e933
0d3a
2e75
4ea5
4df1
424f
6244
6e57
9d93
949d
ca60
c427
d57b
033f
0471
11ac
96c6
cf16
d876
c1a3
569b
5f90
8cf4
48d6
b446
99b6
cd54
f7e3
d0e3
0fa4
753a
cb34
82ce
65f1
0925
5564
7d64
8d2a
932e
b2ae
bd61
03cd
46e5
b674
cc88
d66c
1c73
c1d1
6cf1
2c98
c8b9
813c
3a9f
e5e1
23b7
b4e9
595a
525b
d5e0
5b07
8793
30ed
4bf6
b86c
0e1f
9b4e
1f66
1968
91f9
0d9d
2465
2b38
6e34
6929
6e4f
73cb
8eaa
9e7c
9d3c
ae5a
bd64
c9cc
c55b
e48a
ee32
fa07
2679
58e2
18c7
df9c
f1ae
fc4d
4fd5
ba98
b9f6
f47f
f4ed
82d7
8451
a9bc
6b90
2b5a
a0bf
9e06
6268
6d67
e074
ce1a
a36d
ab17
a869
d884
07bd
173c
1e22
31f0
5aca
5483
ae3f
ce3a
f90d
12d5
123b
714b
9cf9
16b8
1157
86bb
61d7
d1be
bc54
93d6
e5b6
9ab6
da56
69fa
e2e9
29e7
9be8
c99f
90d7
9de2
bd5c
8ed8
c065
e26a
eb1a
15fd
d442
3fac
b118
13f3
1d9e
474d
59fc
6335
8b6d
8902
ad37
ce56
d7cd
1482
bf8c
1fdb
9c78
4647
3661
9688
7c42
2c1f
91ee
af4d
5f71
65e1
649a
f3e6
9996
fbe7
95ac
3e96
ce1f
b4f4
2b1d
a21c
c88b
858c
1d2d
174d
6322
ca8a
feb0
08a8
08bd
6fa3
1f88
16ee
b611
d630
c102
bcfa
c8b5
69b7
c4b2
c47d
d422
e2e3
b2df
99ec
7503
80e0
1d1c
9584
8e65
2582
826c
b110
6019
2aa7
8775
f1f7
050c
149c
1fbb
9c86
9cfb
468d
117e
78ca
a8c2
5f31
4a75
b3dd
d97a
24c6
e3eb
c2e3
3255
ce23
d521
bc68
b07c
30a7
c08e
c168
85c4
25f3
2d96
4e57
d52b
eecb
08bb
0854
2632
c67c
b187
4829
9f28
303f
aaba
d458
f4bf
924a
9bac
95dc
9559
0dcb
a939
b462
d02e
d467
d938
e025
0b2b
073e
138f
4ac3
6806
6a65
86f4
9e84
a80c
eb66
03ab
6159
78cb
df4b
e5e0
332c
a553
b95f
e2ea
179a
17b2
92bd
355c
2bd7
be26
8867
5918
09a6
b915
6b3a
076b
538c
03ed
68ac
e6b6
568c
d1b8
8c86
b3ba
c4b9
13eb
52d6
a9b7
99ef
9bd5
09e7
f5dd
abd9
886e
407a
18f1
dff2
1916
2ba5
2289
4e2a
5e36
6e4e
6b9d
8d68
a63e
bceb
3fbc
fcfa
4f31
e75e
da21
fa5b
e4d4
9490
57ba
a7ff
5bdc
4bb3
b81d
d916
9e1c
b9ae
2ece
4727
5e05
9ac2
a78f
b3a5
bd34
cd2b
c5f8
cd63
e4a8
f248
f527
f90b
12cf
12a3
28c4
dc2d
46bc
119f
7ce4
d132
78ff
ec56
c8ab
3ad0
a102
6320
7a5b
b9b9
4503
5793
b5f6
2792
2d90
dd98
40eb
1c6a
c914
8fa9
bafc
30f5
b442
273c
36fe
5e37
5ec5
6d3a
6410
7b29
8e97
ce43
daa4
d1fc
f787
fd60
16d3
a6e8
5cb0
f175
88b6
2a92
d598
3e0c
a54e
307b
4935
1d1d
3d47
771a
888f
0c06
35b7
5e0e
6e52
673a
750d
abcc
bea6
0535
9cde
b1d3
b1a4
8151
2196
6478
c42c
ad07
4754
2bee
bd02
9e71
48fb
e235
4860
751e
3dc8
3a14
c86c
39f5
4c0c
73c3
a3ce
b949
def3
eeb5
05e6
e85e
ac26
c672
b8d7
9654
8f88
7cbb
787f
914a
5f14
514a
518f
a193
5a93
4a9c
d338
e254
62c6
8bed
db08
a0e0
093b
e5fc
d732
8e1f
a2fc
0d79
1e8c
17fe
33c2
9df5
a2c8
a5be
d465
da68
034d
71ee
f65d
1feb
58b5
e6a9
f15c
5f47
7fb5
74d4
2220
22ba
225d
f499
1391
949c
19d4
7504
7099
5c6c
d368
9063
3a17
eb43
d818
1e73
2eee
29c7
33c5
3e43
6a6b
9797
9295
b92a
b3c3
e747
12ae
0499
bf8a
9839
1f0e
6897
b697
6639
cca5
6c1e
915f
5f0b
88ce
73c6
4a78
2a73
c2d6
43ed
7992
576f
9972
0981
7bd5
07c6
60e1
a0ca
b26e
6911
83f8
c448
b962
0449
71ab
467d
56bc
91a2
7f5f
3a3d
8ab2
74dd
54ef
c4e3
a2b5
99e1
ceb6
f9af
bdac
dde8
b020
de1a
4078
5ccb
d263
1534
e060
6bf3
b568
7a1b
c8f2
42fb
11fd
27a9
5786
7eca
7a85
8004
99fb
cd9a
c247
d9f9
e427
0327
26b0
6f18
9848
66e2
e65c
1c9e
5cf2
91eb
df7c
63b8
c3fa
24e3
83d9
a27a
49dd
c95e
375e
7be7
8054
a0c3
a038
a0f3
9b88
7fab
5bf1
d0a3
6013
c3f2
4924
84f5
8d2e
8bcd
9a67
a52d
f90f
e195
0fd9
c1e6
5693
fc49
5f98
4fcb
ec71
caff
9a5e
ba9f
f426
d726
e4e6
441f
a4d0
47b6
db81
77ba
85c6
1d04
393f
dbb5
cfa1
f885
92f8
1df4
274e
3b35
44a5
bd76
cbc2
e76a
08b3
082c
c85c
c8c2
3a5f
9adc
ea5f
8a5d
39f6
4492
c757
19c8
6bb8
d063
d448
55fb
97fb
cd31
ce5e
038f
9836
1fb0
11d9
31d1
68e5
a68e
e630
0f0f
0fee
0f83
1cac
88a8
ca37
9a4d
5a29
fa7f
6291
3781
a7d2
3eaf
9038
de1d
89aa
a565
1fab
250b
6c02
b79e
267e
71f8
dcab
9cb4
31a1
b64c
9665
a84d
3f76
f133
fc16
fc19
9353
3378
39c6
e355
d45a
19ba
4277
6ddf
30e6
80e1
f5c9
c093
2541
8815
ca1b
1bb1
408e
09fb
5b2b
8bce
c924
d002
ea07
055d
983a
16ec
fc4c
8c55
7f35
da57
4aba
2494
a296
77c6
90f6
fdd7
eedc
9ed2
746c
b0cc
fbb7
958e
25c2
8b34
1ea7
1947
2eae
4e0b
5b29
c29e
e7a2
0369
e8b4
e878
71ae
28e0
1c55
5ce5
916f
4108
3f4b
88c7
8cbf
22cc
f39c
57f6
6b71
fd02
40db
4513
eb88
f866
db1b
6afb
d542
328d
540c
3ff1
cdc1
8f6e
f262
2b84
55f4
1db9
1d0d
3b6b
59f2
66fa
a78b
f20f
12d7
e154
4659
117f
d617
afd6
f14f
21d9
4824
51de
9f23
3a58
5276
47de
3793
0eeb
aee6
c535
2b18
cd13
1397
7a84
7245
a524
b9cd
d482
e2aa
f764
f622
f610
98c9
0f32
1c7d
6192
7cc6
fcaa
8c79
4a5a
a416
8284
fd4e
e266
4b4a
5e8f
a81a
8235
79a7
8cca
5260
60f8
5d2d
5d99
5d65
7e0d
b7f8
ce4a
fe34
f8fc
26ed
71b2
28e3
2c7e
3f12
8cfc
81c2
225c
8297
4457
dbec
6d26
be06
b3f4
24c9
b91b
9561
d8f9
aa14
392e
4735
55a8
b982
e225
bf4e
c682
98a5
a623
667c
8fdc
efde
ea90
4a4c
ba36
b396
ebd0
62d6
8992
3228
a41f
27b9
3776
a75f
f959
fdb1
4eef
7e65
4d32
4d05
550d
b73d
c5ad
f6f9
f1f9
c607
e152
1194
a6c8
c1c2
df32
9a5b
da94
5a4b
1a2c
8a78
237e
24e1
7281
35da
7be8
5ddc
6585
fb48
3288
e08d
88f0
906e
3dc7
2345
c16e
36f2
5ea1
57a2
9b2e
950e
aac9
a335
aef7
f61b
589f
b6b5
660c
1c9d
5fb6
c8db
2f5f
efb0
eb96
e258
b2b0
8258
55e9
a7d0
2de9
de02
beba
306c
1c6b
8dc5
7b42
c710
d444
cbaa
076a
15f8
639b
d802
149e
12b0
28fe
c614
1f09
3645
3179
0fbc
6c90
7cf8
8c39
4f07
ec9a
9f5a
ba86
2adc
2a2f
d3b4
c754
8be8
8b51
a208
a22c
92e5
92d4
c9d7
fbd2
b523
d557
8e9c
702e
8b1e
9c65
eb1b
8bb5
d02f
804f
0783
1a0f
400d
7daa
7e75
ad7e
ae7a
e4f3
0523
f627
dc13
9c35
9642
d8c7
4fdb
c8e4
819c
f833
2371
535b
e451
15d8
479c
2793
6e81
5eb3
dddf
4e02
4e46
5e1b
740f
c0ca
eccd
516d
428c
154e
54c4
e2f5
0705
0b67
0eca
8da7
9da4
c419
e31c
04d3
090f
f664
1f8b
b6b2
d6c8
88d8
eceb
6379
39ee
7471
9228
49ac
47dd
b720
cd28
d5de
f996
a0d0
60e7
1ff5
f867
aff7
0e11
8fae
bccf
54cb
0e7b
95ed
ae55
c3c9
d2a1
ee3a
f786
f38a
71cc
e185
9626
9659
9144
e755
f8e5
9fca
baef
2a7d
c2d1
b9dc
d7dc
b290
32b6
67e5
8434
2573
f5db
f7f6
ae28
3d07
d0d1
fb36
7335
116c
f860
90cb
5715
6d1e
d023
ea19
2512
5386
77a7
852c
89c7
b1f3
de33
d1f4
f80b
05bb
263c
c6dc
1130
e6d6
d67b
b1cd
411f
21e0
9f58
d393
e37e
b9e3
1778
1959
a2b0
6b52
c0d7
ddeb
60d3
686e
7038
7c6c
771c
0e7d
0eee
07be
3d0d
47be
67a5
994a
9225
adee
b73c
b7a6
b7cc
c337
ca09
e983
facf
71ad
e123
d6d7
c1ee
2cac
c834
0d53
74b1
c352
a326
156f
db9c
ceb3
1bc6
8b8d
d160
3d1b
7fa4
35c5
eb46
1aa3
2df5
33c3
4e39
47ca
6d8d
8722
a76c
d57e
d52f
c618
3148
b856
68b0
cf6f
0c2d
6cb7
f85c
c3d1
2571
2edd
c05a
3ee1
abf3
e0a6
1583
e36e
35fd
3ea1
57a6
8d24
cb2b
d9f8
e4a4
c6c7
76ee
ccaa
0cd3
a82c
48e0
d3c6
7a35
6778
7793
4028
7024
19ab
cb1a
c11e
3517
d46e
3b86
4099
59a9
0ef2
13c8
57a4
cbc1
03aa
089b
1244
ac5e
8660
b8af
cc97
df29
fce6
ca98
dad2
335d
64b6
1793
79dd
52e6
4751
35db
c056
4e90
828d
0ffe
881c
e916
651f
1d9d
350e
7a6e
83a4
bd25
d00c
ddf8
ee47
08cc
b402
127f
12c5
e88a
167e
58df
11c5
cca3
afb7
df44
3feb
ef5b
a191
b3e4
d778
45ba
17d3
b5d5
8590
d5eb
1b74
8e1a
a04c
2a14
b46b
e9a2
f3f7
68f1
278f
329b
4e3f
75a2
849b
a42e
de8a
ee24
e48c
f2a1
31de
6691
d65f
b1c2
5fbc
8c4c
e774
caba
6979
5309
72dc
72e7
82b4
fbdc
ab59
90b4
3ee3
e0bf
0b12
571d
4531
d86e
d066
3e64
608e
803d
b589
c969
131c
2d37
3b67
680d
82a8
c00d
c310
c42e
d1f5
1449
6fa9
4fba
da4f
aa79
2aef
c328
6998
c2b4
c458
32bf
67b8
19af
29be
6b72
f776
fef6
30de
805b
de66
891d
fb47
b9a3
ab1c
e2ce
a51e
1b83
233d
4335
5e3f
85be
931d
9e44
ad2c
ca8c
e202
f74d
71e1
11a7
e697
5649
b106
7c08
af15
df48
ec1f
ef21
7393
6424
23d1
f4db
627f
13d7
c904
5be5
9db4
8720
a0e7
c0b7
bdd6
6d68
8863
8af3
cf6e
df67
553d
55c9
f405
0d36
1507
9e4a
b944
f241
28f5
c6d5
e18c
9c39
cc99
1857
0fd6
0cf9
5c29
9f20
da92
ead7
645e
b421
a2ee
2bef
a0eb
1d20
30ee
ee21
9ebc
4e92
8051
2b4c
7d47
4066
f562
bff7
a364
22fc
926e
aba8
df64
a40d
8ec8
890f
8382
9318
a225
b339
cec5
de7b
d55e
d207
129f
2668
71aa
28fc
0b54
6c1a
91ad
54d5
e3d5
c25d
f46f
1573
42a6
9b28
cb93
3052
30c5
c0f5
8236
351f
cc69
f967
1bf8
29c8
54f1
8ec9
9a0c
9e4c
a330
cb2d
c99e
de2f
dda9
e805
5838
86d7
b8ef
6827
a65a
6602
c15f
7828
bc51
91c8
3fda
c83b
aab4
3323
1ade
bae0
2add
23b6
d258
e9b6
9be6
cb5e
eebb
456e
30f4
9e61
734d
8888
b11d
1ccd
6b7d
8d79
a705
bd7a
cac2
c5be
d495
169c
ec5c
4a31
e4db
3281
19e3
8b54
5556
a7da
640e
3015
9078
af62
1b41
d86b
ad4e
091d
1cc5
8a14
4e2d
5ac2
6761
7e5c
81f9
a94e
a97d
b5a1
c809
c4a8
d723
f418
f43e
fe5a
0567
36cf
962c
6134
0c8b
df5f
7f05
e726
ef0c
33e4
ead6
6a76
83b4
b9b4
e4e2
e41f
82d5
79ac
49e8
b7ac
75e6
4bb7
e535
654f
791a
140e
8e68
9b4c
dd4a
1bf0
b0fd
68f2
29f0
2efe
2d2f
3aa5
5d7c
598e
51f3
759b
aaca
083e
71d1
168f
1144
7608
76d8
9189
8898
51e5
ef16
73eb
b3d1
a3b5
89b4
b573
b558
2be1
5b5e
9ef6
d713
ae60
d16e
151d
f40e
4a0f
47a9
5337
5945
548e
9e75
c74e
cbcc
d31b
e797
1432
e631
d698
1cfa
d83c
b190
d1e2
bc2f
88df
7f0b
a14e
63e4
73d1
ea3f
1ae6
8aeb
6a1f
69d1
c2b0
22ac
d773
8294
e9fa
7771
ce93
6dd7
4ed5
de12
9088
3081
ddc6
a16d
936e
ed48
ed42
754d
1b65
429b
57c9
a7f9
ed96
fd5d
045a
2608
1fd2
3649
58cd
cc57
af02
a8b2
935a
88d3
8845
f87f
51e4
a190
8abf
7a99
a381
c4e9
d47e
e273
59d5
7d0f
b0e7
7d4a
7b46
a087
8d15
e092
5861
171d
e163
49ae
d016
1e05
6df4
990c
cb7d
eef3
bf9e
9c46
6643
0fed
6ce7
f173
5f93
5f5e
93e0
88b0
2f19
1a41
7411
d2ec
9926
87fa
e0d3
d7fe
653b
308d
9266
df68
d5ce
1ba8
1760
5aad
6e4a
6a8d
8960
be87
d6f2
d3c4
f73e
12e5
bf4f
f697
a6b4
a690
e61b
0c82
b1a6
5c5a
f1da
4f43
ecda
48ef
a13d
4a46
6958
a523
948f
595f
dbe0
55e8
1e93
4b17
a083
1af7
5d1e
6886
e341
971e
43f1
4b9d
59c8
5d94
880f
8784
a007
b4a4
1429
0452
28db
1f16
11e6
11ed
6663
cf8b
1c94
d82d
c191
4fee
ec36
ea31
c499
795e
b5df
37d3
8e0c
40c7
3afd
a93e
e084
6022
0e5b
66fc
6764
6b66
9c07
999e
ae0e
ad0d
c485
04ba
e87d
2889
61e8
af05
f123
e75a
a15e
d4e2
4591
7977
44e6
67ef
c75c
4b0f
f7da
6ebf
d06c
f51c
d0c8
d0ae
7bae
1387
63ae
86fe
bd38
cd3b
c430
ee54
04c9
9c73
363c
86b7
6847
66b6
e634
e65d
0fbd
d128
9197
f8ca
737b
ca59
335b
b308
e2e1
e2d7
d27b
5726
5998
c9af
cdd4
ab96
8ee2
5368
e043
1bfb
4905
5dee
676e
64f1
643d
8d69
93c2
a98c
c94a
c90c
e575
e1fe
0386
2884
16da
9662
7639
c1a2
b1ff
910c
911f
51ba
a356
62d9
7290
44d7
19ea
475e
25ec
35d7
7553
7b7b
d5ef
c0e7
bd0c
4eac
6dc3
80fc
e078
f566
9013
37aa
6d83
738e
8e47
c78a
d225
03fb
086c
14d6
ac77
112d
31a5
d857
5c71
dfd8
8838
4fc8
a1af
aa5d
ead0
2432
b955
b4b6
d7b8
a7d9
b938
c71c
ab1a
c36e
4085
0e2f
6707
64a8
941b
9e4f
a314
d20e
58d3
b668
d14b
212b
482f
c307
e3d4
897c
8291
57da
9904
fbe9
a708
1b20
aee3
3af8
bd44
dd1a
eba4
d548
fbaa
940c
7ccc
eaf5
996e
2a0f
2aa9
392d
490b
7a64
8e82
9e0e
aeae
ae88
be0d
03f3
e85a
e10c
5692
a8a7
f8e2
cada
ca79
39db
d3bb
825e
a4e9
3703
a774
6b79
4b79
f9b4
f993
30d4
0d84
b4f8
8218
9065
4bad
94a7
d883
3dae
6ea4
99f0
0448
28c8
685b
6835
cc8a
1c5e
c1df
8cd8
ba2b
69dc
c29f
4352
6276
8bef
92db
b5dc
6d53
a0e1
a0d1
c0ff
c0ea
736b
a043
5dc6
c56a
e099
b062
cffd
e0c7
e027
0e8a
17b7
56f5
6e2b
776b
ab67
aec4
b941
cd34
cd82
dbc7
e72c
f32b
26da
268e
ac16
a664
8f51
ccad
1c54
1c7b
0cad
af44
af9e
412e
412d
3f8a
d47a
42b7
ed03
23fb
0c64
9915
cb43
2222
5d60
5709
8ded
0560
c6e3
161c
18e8
c1f6
2c87
632c
4a6f
1a04
f488
57dc
d5e3
6dff
0c66
116b
9039
791d
c2fd
8bb3
e167
abab
49a3
911a
5bf6
1e79
27f8
26f1
26f0
77cd
8b7e
b90e
b984
cd2c
c657
b6ce
d6ad
d12e
4f8e
ec96
218a
9ad2
8ae1
82ac
4590
8b9c
a923
6e60
4b1c
db1d
1409
e212
6e15
5bfc
548a
6c07
ae30
d98e
0872
1f7b
16d7
3198
b1c7
2c11
5fc5
8c71
5176
ef83
5abc
6a5e
eb78
c297
f355
a491
c9ed
7baf
fe08
feea
4058
4934
5361
9566
62c4
3df4
33ad
641b
8805
99c8
dbce
eac2
e7c1
03f5
08eb
12e6
28f7
1652
b85e
b6cb
1874
0fc5
ec92
e7d9
2128
a15b
f308
8b7a
95e2
8d07
626d
3264
551d
f2f8
9860
8547
c86a
178c
448a
4d94
4a6e
5e78
650b
8e84
a72c
c3cd
eaab
fece
fd91
12c8
c62f
98fc
9c4f
e60f
960b
7664
8fd5
d68b
2f91
48d3
aa56
b37f
32ee
775a
b796
cb9a
2bd0
f971
70b6
aeec
bd04
f4a6
b4fe
551b
551f
8cc1
ecc8
cb8e
2ebd
6067
8b7d
931a
ad5d
b783
e50d
e960
ed77
ed65
08df
361f
11d7
0cd4
0c2b
7842
4842
ef52
3ab2
63ac
65ba
6ade
57ed
29dd
4220
b752
70bc
ed53
3213
4043
4046
b4c5
e368
2d5d
3d59
62a3
8e48
9a62
9c05
bd9b
c944
0354
711e
460b
68af
667b
e616
96c8
d1ec
fa7c
e3d7
c256
f4da
322c
a2ec
a026
c0de
deff
e0c6
828b
fb37
909b
30a6
32f8
6ff8
c408
75c8
1382
63c5
7aaa
7e36
8962
8ac7
8bc9
9202
a777
b410
daa9
facd
28ab
b65f
969d
d8a1
56b0
5c55
d18a
91bd
918d
df2c
2f79
4ab0
eb77
d4bf
b4d2
f3e1
84af
84f6
49e3
cb5c
1be1
1eb6
b369
b097
cd41
3dee
4d6d
4ac4
4382
7d6d
994f
dd61
0364
0855
589e
cfc5
7c16
41af
93c6
4f2f
48ec
3a93
2ab8
19df
b7df
23f8
5232
0bf8
2ecb
6318
86f2
924f
bd35
ca89
c20e
eecf
08ea
1469
12db
acea
1fcd
66bd
0de5
ba58
74e4
c3cc
6223
82d0
a424
25dd
c95c
c9bc
f2b2
cbe2
6d0f
1d21
653e
407d
6af2
a0f7
d460
64c8
85ca
332d
39f7
7d7c
8e0b
9a84
cea5
d3a4
261a
ac2b
6619
0fb6
6c39
7cd2
9392
4c37
ca77
a5da
f431
5523
be07
6360
ba1a
cbb5
191e
3322
7d6c
93c5
bd69
c7a8
e76c
eacc
e2ad
f741
053d
261b
bf11
3194
cf7e
5c7a
783f
df51
ec7d
a187
63e5
2ae6
7aff
7a76
69eb
e35a
62b1
f3e0
b576
30dd
6718
fafe
c466
d06a
b91c
9d1b
7341
effc
3795
4a63
5382
64f7
89f1
a5a3
08d8
05ff
04a9
ac9f
9851
11af
11bd
66cb
8f4c
737a
65db
2aeb
647c
64ed
a3b9
322a
d25b
fdd1
9230
9b3b
a0c4
fb15
30a9
4e1f
a961
58fe
0e78
63c1
650c
620c
9997
a7c4
dd82
e9c4
fa8c
9830
6899
76d3
0c39
78aa
af34
4f10
ecbe
489e
dade
23ed
c486
942c
d5d4
6e9a
4e9c
393d
623d
a097
5934
a016
071e
b562
811b
b04e
b115
802c
e9a7
3d8f
4aae
5ac7
8b97
ae4a
a243
d97e
dd8c
d7c7
e765
e949
d675
af03
5f37
c8e6
a1ac
63d8
5471
b224
15bc
375d
ae9c
8d72
8dba
686c
db19
1d11
cf63
82c3
f341
47ae
cb30
c80c
eda3
f41e
1287
bf52
ac5a
11fa
56a7
91b5
a8ba
a8c8
886f
f874
9fb0
7ab7
57d3
925e
4204
9054
1ed6
5e6f
bdb4
dde7
5e51
cb4e
7235
dbfe
bccc
40a8
64fc
7960
8a82
aa6a
dd8f
d7c9
f724
04e7
713b
362a
8f96
8f5f
d176
78b6
91ed
a891
ece4
516f
efb5
7390
0d26
4abc
65af
ebd2
b431
b2e9
45c6
57b6
2b9c
6daf
7edc
9afc
3210
7408
9268
981a
d886
474c
67fe
798e
700f
79c2
a960
bd39
f524
fe5b
0353
6f8d
7179
acf1
c6c2
98c8
36bb
b6e9
96dc
cf90
0f1a
1c15
2cf2
afc3
88d6
7476
c290
d474
f475
8946
32de
9998
2e0f
f255
2bd8
2b9f
f9ef
1b5f
5d26
f363
a0c5
8093
fb14
0b32
a967
4cc9
e2f1
0745
2b6d
3e52
45a9
5799
05d0
e8e1
28da
f62a
1fe2
46ea
8f71
1c04
1caf
7ca9
2ce9
3b55
dfee
4caa
9fc1
5a08
b47e
72b7
b2e3
d293
99ee
a7eb
d523
edd0
1d28
8e0f
111a
9e54
d36b
5e84
8b88
708a
688d
2ba8
6a19
e96b
1b86
c5fe
3e3f
4a8d
4d6c
52a8
9e3d
d7aa
e92d
e227
f705
fe32
e863
ac53
c647
1fd9
1699
18c2
cf5e
d62f
d1a4
4109
5fe5
5f13
88e2
48e6
a1b6
5a57
2356
8b79
27ed
2d41
7407
65c9
1918
f9a2
2b87
27fd
5768
aeb5
ceb5
e92a
f3ad
26d2
c651
1f7c
31c5
a632
1c37
61e7
b138
5c3f
91db
dfcb
8cda
c83c
9f76
ca91
9a7e
e277
8278
7993
c976
377a
5be1
07ac
d05a
8285
0d88
0fae
0faa
ad1a
191a
5d42
ee1d
b112
1922
292e
5b67
8767
97bd
ad32
a38d
b92d
de34
ed7c
083a
acbb
e18e
9c89
6629
666d
56c3
6c31
fc2e
88cf
f85e
7ae3
549f
62e4
45d4
67e0
29d4
db7f
35d5
a7de
7ed1
b0d8
e811
dd11
0bf5
3f66
e0ac
946d
2b88
f408
4eab
6dee
9067
eb38
0860
b8c7
68e3
b62d
ccdc
1c8f
3f21
fca2
8cb2
63ea
8a37
c490
2921
b7ba
85b0
5be9
3e9c
d0e8
e365
5a17
0d3d
2724
35a2
47c5
539d
5d8e
6495
880c
ad76
a742
c7f4
ddf3
f7cc
1424
71eb
1f56
1f5e
4691
3607
31e9
9655
cf93
56a4
88bf
2454
d5d9
fdd3
f218
8864
4af8
951d
2562
526f
e3fd
5b87
4586
150e
25ad
3d17
6db5
a7c8
a80e
be57
0884
05ef
058d
0475
98aa
0b52
e668
5c76
f16f
8c9e
8cae
4f17
aaac
fa75
c451
d4c6
d7e3
d2de
82af
c796
d571
bd5a
30d3
4055
4e9a
a810
e214
cd1e
7a1c
db3d
2d22
643e
8ead
970d
b52b
bd2c
71d8
f6c6
f63d
cc8c
61d4
0c42
91a3
afc6
af83
dfcf
fc85
e759
5192
d3da
247a
e3b6
d75a
67d8
1592
55bb
27e9
905e
cb7c
0771
ed0c
40d3
4468
30ce
909e
c93b
94a9
d0af
35f3
0d77
1eca
8da9
c92d
e7c4
ea0e
ee41
0551
14e4
1f45
6844
0f27
1cdf
2cf9
a8df
a83e
8137
2f82
4cdc
73ba
c39c
62d1
8b5c
a44a
595d
99d6
779a
6b5b
a715
30cb
99a1
7887
13ae
2ea5
26f7
229e
8d77
8b6e
a49b
ba8c
cda7
e3c3
148c
e8e8
468c
1159
e6ee
1ced
91da
914c
df26
41ca
fc29
81e5
7336
dae9
aa92
ba7b
62bd
b294
ed28
be04
89ae
9cc9
2e15
db49
fbf2
d93e
94a6
9715
cb8d
09f9
4ff6
4527
5d78
89cd
ab66
08a1
46b2
8621
315e
0c2a
f17f
c496
b9df
82d2
82b6
c5df
abec
923f
d04b
c54a
a260
c0f8
d547
5917
a5f0
24aa
473c
4410
7595
7e3f
ad59
bea3
f925
e845
e147
110f
b184
7c15
d18c
78e4
fca3
d3ea
23d7
94ac
b79c
09e9
5e9a
9b3c
5362
79a2
cc63
6b3f
1a0d
278c
2205
4765
6ac5
64a1
87a7
a244
cb66
fd2f
2672
0b76
cfdb
d6ef
0cb5
2c29
78eb
8878
8cd2
213c
9f88
a1b8
630c
9a9b
1aaf
647b
c2d8
f4ea
25e0
b759
cb96
6d5f
87e3
5282
6546
9e1b
3a18
608c
a40b
408c
0e7f
1e8b
5eaa
6384
92c8
990e
0882
0584
04c5
36d3
9664
cf0e
b1b3
bcdc
3f5c
f1eb
2f43
51b6
5182
aa36
2a71
7a53
7a92
57e1
8b58
a2ac
1dda
dd71
3ed6
a583
22cb
993f
3e3a
6d33
84ad
9e8d
03a3
d61c
7c1c
912c
6396
dabd
33db
6a56
7446
d9af
83c6
c4cc
d4e5
e2ee
829c
57e6
92b2
a7b1
0781
edd7
be72
b365
de67
a36c
1917
5819
b5c3
4295
4d8b
7d91
844c
cd30
c9c1
cd55
f5ad
acf0
1693
1622
11cc
5c57
a8a8
a85d
88ed
7f1b
810c
f8e9
8a76
8a11
e27f
44b3
c5ac
b7b1
60e5
626a
b016
1d10
b566
19f3
6b99
776c
b7c8
c29d
e42e
032d
0419
e1dc
1f1a
463f
36cd
7671
b129
a8dd
a83b
8aed
d926
c4dd
e2b1
8271
15d0
42b9
2ed2
2efa
f97f
736a
9afb
a025
cfa6
3ff4
0d7c
2ef0
57fc
600d
64fb
8bcf
ab0e
a941
b80e
c5ed
08a4
9829
1677
b832
18a4
6132
0c8a
d1e0
af23
8897
ec72
219b
d30e
139f
9b9a
ab56
671e
c119
402c
5a1c
45f5
074f
0e4d
4209
4a69
4809
629d
db68
e3c1
e3c5
040e
0876
ac45
c6e2
9822
0b04
3b73
d1e8
d15b
3a54
635e
daea
65d7
53e4
b4e0
d7e0
e434
d22c
44cc
5790
5efa
ee9a
656a
ba17
1af1
ca15
5b44
be62
e369
32c2
db8f
5795
6c0f
8797
8a09
c20c
6f7f
9c97
66be
7659
bc20
a820
a83d
f8eb
4ca5
cae7
ba47
8b5a
4b90
abd7
2b02
07eb
ae08
a035
9061
b349
4266
223f
2e56
433a
7768
970e
a465
a7fd
adae
c49b
d982
f66b
e151
b891
b636
c1d7
bca3
5fcf
884b
8ced
8ca9
7f47
2fc4
5149
fa54
39e7
b321
c246
b4da
b45e
62dc
2993
9b7f
0ee8
6ebb
ac6b
2e44
49fe
780e
824c
c98c
fecd
6fdd
28fd
acd8
b8b4
e6e6
d6c6
0fc9
5c84
d1d7
d15a
d13b
41eb
5f56
4f74
f845
9f13
a16f
a17f
da98
4aef
fa5c
2a98
a3b2
7272
94e3
59bf
155f
52ee
a974
c5eb
c9b5
ceef
077a
87d0
fd51
1163
d3f2
2bf4
75c2
0e54
27c2
22ab
544c
8b65
8e79
8d55
9ea6
aa0e
d248
fea2
05cc
260b
e13d
86d3
b608
763c
7cfd
a8fa
4f02
4f3b
ec8e
749a
5323
c2e1
949f
a42f
b7b4
f7b3
4dac
e055
0dcd
7861
7095
a71e
f46e
c918
8b87
b460
2233
8036
5bfa
2efc
3a8c
4e8f
7525
8ac1
959e
de0e
d72e
e78f
1299
e1d9
4622
960d
d18e
785c
bce6
9146
9129
f8e3
647f
c2bf
c293
a390
47e0
97ec
09e3
1dd7
40f6
a93b
3b8c
fb87
198f
39f9
37f9
6207
7e51
cac9
fe53
08ba
08fb
04eb
ac51
e126
e110
9c5d
36cc
96a7
5636
f1e3
f12e
81ce
a1c9
2923
cb79
5b53
b0f6
de60
8b1d
2d43
991a
c91a
6031
d566
c1f2
6ecf
[...]
